<pad>	0
<go>	0
<eos>	0
<unk>	0
<url>	0
<at>	0
<hashtag>	0
▁.	-2.68374
▁	-3.08552
s	-3.17599
▁the	-3.42096
▁and	-3.71144
▁i	-3.91416
▁!	-4.04384
▁a	-4.04431
,	-4.08851
▁was	-4.2638
▁is	-4.30061
ly	-4.44076
▁to	-4.45276
ed	-4.46281
y	-4.48859
▁it	-4.60739
ing	-4.69886
▁great	-4.70899
_	-4.73967
t	-4.88437
e	-4.95192
▁'	-4.96947
▁thi	-4.97753
▁food	-4.99259
▁place	-4.99452
▁for	-4.9973
▁in	-5.01858
▁service	-5.03046
▁good	-5.0439
▁of	-5.04642
▁my	-5.09921
d	-5.10348
very	-5.13195
▁not	-5.22065
▁be	-5.22789
▁are	-5.27046
▁they	-5.29636
'	-5.35479
num	-5.42781
▁with	-5.4526
▁n	-5.45624
▁love	-5.50885
▁you	-5.54165
▁so	-5.56709
▁we	-5.58549
▁have	-5.59996
▁on	-5.63525
▁that	-5.64613
▁here	-5.70086
▁but	-5.76853
▁had	-5.78808
▁friendly	-5.80482
▁best	-5.81906
▁were	-5.8452
▁alway	-5.85726
▁staff	-5.88881
▁no	-5.95472
▁at	-5.95769
▁go	-5.95863
▁all	-5.96956
▁real	-5.97197
▁will	-6.01945
▁th	-6.03021
is	-6.03585
▁back	-6.06135
▁nice	-6.07191
▁do	-6.07366
▁there	-6.08233
▁recommend	-6.09044
▁me	-6.10627
▁just	-6.14106
▁price	-6.15025
▁out	-6.18734
▁time	-6.18792
▁an	-6.195
▁their	-6.2017
▁amazing	-6.2129
n	-6.22752
▁would	-6.28228
m	-6.29525
▁like	-6.31569
thing	-6.31679
▁our	-6.32499
▁experience	-6.33263
▁one	-6.33926
▁get	-6.34243
▁delicious	-6.34453
ve	-6.36811
▁as	-6.37552
▁definite	-6.41505
▁customer	-6.441
▁well	-6.45088
▁did	-6.47549
▁she	-6.48345
▁every	-6.50936
▁order	-6.51205
▁too	-6.51744
▁ever	-6.53197
lso	-6.5425
▁excellent	-6.54605
▁over	-6.58631
▁has	-6.5891
▁he	-6.59878
▁what	-6.60553
en	-6.60776
▁if	-6.62843
▁t	-6.63568
▁some	-6.64017
▁again	-6.68425
▁restaurant	-6.69084
▁s	-6.71411
▁up	-6.71995
▁fresh	-6.73411
▁any	-6.75129
▁even	-6.7544
▁clean	-6.77408
▁pizza	-6.77739
▁your	-6.78638
..	-6.79773
▁awesome	-6.81214
▁never	-6.81316
▁work	-6.82712
▁favorite	-6.83214
▁wors	-6.8781
▁bad	-6.88135
es	-6.90559
▁them	-6.9107
▁got	-6.91405
able	-6.91672
`	-6.93164
?	-6.93601
▁look	-6.93704
▁wait	-6.93862
▁star	-6.95295
▁us	-6.96601
▁disappoint	-6.96621
▁people	-6.97046
▁worth	-6.97167
$	-6.97393
▁could	-6.9819
▁or	-6.9921
▁prett	-6.99303
er	-7.00043
▁location	-7.01092
▁when	-7.01154
▁super	-7.02116
▁can	-7.03784
▁how	-7.04463
his	-7.05247
▁horribl	-7.06622
▁atmosphere	-7.07113
▁chicken	-7.07296
▁by	-7.07655
▁enjoy	-7.08042
▁fro	-7.11301
▁come	-7.12521
▁eat	-7.12829
▁happ	-7.13426
an	-7.13782
▁make	-7.14703
▁wonderful	-7.15762
-	-7.15944
▁high	-7.16543
▁much	-7.18861
▁mad	-7.19302
a	-7.2009
▁more	-7.20186
▁other	-7.20576
▁fast	-7.20723
▁absolute	-7.20914
▁helpful	-7.21206
▁perfect	-7.22341
▁give	-7.22602
▁tast	-7.22768
▁bar	-7.23706
▁fantastic	-7.23811
▁store	-7.24186
▁b	-7.25142
▁taste	-7.26847
▁down	-7.27259
▁lunch	-7.27488
▁take	-7.27906
▁un	-7.28296
▁selection	-7.2863
▁family	-7.28704
▁first	-7.29017
▁w	-7.29069
▁minute	-7.29142
▁terribl	-7.2915
o	-7.29315
▁flavor	-7.29482
▁qualit	-7.30519
▁drink	-7.314
▁fun	-7.3142
▁li	-7.32322
▁-	-7.32389
right	-7.32563
▁rude	-7.32629
▁new	-7.34269
&	-7.35464
re	-7.37581
▁after	-7.38052
▁job	-7.38191
▁guy	-7.38487
▁car	-7.38651
▁thank	-7.40065
▁than	-7.40172
all	-7.41195
▁day	-7.41204
▁way	-7.4141
▁know	-7.41796
▁sandwich	-7.42621
▁hour	-7.42702
▁everyone	-7.42732
▁salad	-7.43111
)	-7.43163
▁special	-7.43171
▁quick	-7.43559
ful	-7.43744
▁want	-7.4396
▁came	-7.44283
ttle	-7.44972
went	-7.45289
▁visit	-7.4546
▁say	-7.46217
▁spot	-7.46557
h	-7.4692
▁m	-7.4706
ment	-7.48199
▁am	-7.48525
▁her	-7.48696
▁need	-7.48909
▁meal	-7.48993
which	-7.49293
▁highl	-7.5104
▁off	-7.51433
▁return	-7.51925
▁care	-7.51947
▁breakfast	-7.52181
▁try	-7.52301
▁menu	-7.52328
on	-7.52661
▁night	-7.53527
ll	-7.536
r	-7.5391
ever	-7.5404
▁year	-7.54146
▁friend	-7.5447
▁thanks	-7.54472
▁room	-7.54638
▁fr	-7.54908
bout	-7.55189
▁home	-7.55236
▁business	-7.55483
▁call	-7.56234
▁professional	-7.56369
▁al	-7.56503
▁lot	-7.56678
▁most	-7.57122
other	-7.57565
▁ca	-7.57727
f	-7.58255
▁hot	-7.59278
round	-7.59404
▁extreme	-7.59507
cause	-7.60539
(	-7.60916
▁see	-7.61218
▁feel	-7.62402
▁both	-7.62569
▁frie	-7.62609
▁sauce	-7.62694
▁abou	-7.63694
se	-7.6439
▁does	-7.64643
▁server	-7.65493
▁check	-7.65836
ushi	-7.65869
▁town	-7.65894
▁com	-7.67405
one	-7.67579
▁shop	-7.68478
st	-7.68699
▁bee	-7.69667
▁stay	-7.70453
▁now	-7.70573
▁man	-7.70886
i	-7.71863
▁sure	-7.72667
till	-7.73374
▁cheese	-7.73598
om	-7.74038
▁beer	-7.74298
▁find	-7.74414
▁dinner	-7.74877
▁wo	-7.75284
▁long	-7.76073
▁far	-7.76082
▁area	-7.76231
▁seem	-7.76466
▁ok	-7.77313
▁ask	-7.77647
▁reasonabl	-7.7767
▁big	-7.78414
▁should	-7.7978
▁last	-7.79998
▁wh	-7.80139
le	-7.8042
▁kind	-7.80613
▁thing	-7.81004
oney	-7.81014
less	-7.81352
▁f	-7.83384
▁old	-7.83797
▁burger	-7.84045
nt	-7.84294
.	-7.85196
al	-7.8528
▁top	-7.85343
▁small	-7.85571
▁cook	-7.85725
▁portion	-7.85763
▁coffee	-7.85999
▁bread	-7.86999
▁found	-7.87381
▁poor	-7.87459
▁help	-7.87487
▁who	-7.88564
▁walk	-7.88646
hing	-7.88998
▁left	-7.89031
▁employee	-7.89209
▁impress	-7.89287
ive	-7.89344
▁else	-7.90059
▁times	-7.90133
▁g	-7.91403
ty	-7.91441
▁aw	-7.92945
▁beautiful	-7.93543
▁mexic	-7.93888
▁dish	-7.94134
▁before	-7.94195
▁review	-7.94218
▁sweet	-7.94464
out	-7.9479
tter	-7.94853
ch	-7.95159
▁soup	-7.95563
ry	-7.95904
▁roll	-7.96228
▁honest	-7.96232
▁cool	-7.96792
▁steak	-7.97564
▁decent	-7.98292
▁attentive	-7.98827
ies	-7.992
▁waitress	-7.99664
two	-7.99686
▁keep	-8.00079
▁away	-8.00581
▁meat	-8.01795
▁hug	-8.01902
▁pleasant	-8.02133
ther	-8.02193
▁taco	-8.02411
done	-8.02433
▁late	-8.02874
▁total	-8.03059
▁local	-8.03761
▁deal	-8.04244
▁slow	-8.04377
▁office	-8.04556
▁authentic	-8.04852
side	-8.05647
▁vega	-8.0729
where	-8.07353
▁wing	-8.0738
▁use	-8.07527
▁kid	-8.07977
▁manager	-8.09089
▁incredibl	-8.09618
ce	-8.10206
day	-8.11054
rice	-8.11179
▁think	-8.11541
▁though	-8.11706
▁hotel	-8.12121
▁consistent	-8.12238
▁p	-8.12631
▁his	-8.1277
rong	-8.13335
▁phoenix	-8.13485
ext	-8.14102
▁sai	-8.1447
▁simpl	-8.14905
in	-8.14979
uch	-8.15239
ably	-8.15538
▁prob	-8.16017
▁fish	-8.16181
▁hard	-8.16416
▁complete	-8.16643
▁week	-8.17713
ough	-8.1946
company	-8.19642
▁treat	-8.19704
▁may	-8.19817
▁him	-8.20341
▁nail	-8.20521
▁cheap	-8.21046
▁deliver	-8.21057
▁wow	-8.21186
▁side	-8.21248
▁quit	-8.21862
▁waste	-8.22102
to	-8.22637
stand	-8.22786
▁owner	-8.23109
▁salsa	-8.24116
b	-8.24197
▁option	-8.24563
▁chip	-8.25263
▁seat	-8.26085
▁egg	-8.26177
ting	-8.2804
▁c	-8.2804
▁bus	-8.28876
▁water	-8.28957
▁col	-8.29266
▁full	-8.31009
▁free	-8.31152
▁problem	-8.31171
▁please	-8.313
▁eas	-8.31665
▁whole	-8.31802
▁person	-8.31843
▁close	-8.31845
few	-8.31932
▁especial	-8.32208
▁bett	-8.32215
▁actual	-8.32294
▁knowledge	-8.3242
▁fair	-8.33059
▁dry	-8.33489
▁offer	-8.34608
▁wine	-8.34907
be	-8.35515
▁bit	-8.35574
▁choice	-8.35683
▁open	-8.37252
c	-8.37324
▁stuff	-8.37413
ance	-8.3753
▁pay	-8.37682
▁avoid	-8.38277
▁comfortabl	-8.38708
▁part	-8.38732
▁usual	-8.39036
▁its	-8.39137
aid	-8.39257
▁shrimp	-8.39446
▁large	-8.39621
chines	-8.40022
▁must	-8.40332
ld	-8.40911
▁disgust	-8.40998
▁husband	-8.41084
so	-8.41125
▁table	-8.41686
▁dr	-8.4184
▁dog	-8.42328
▁medi	-8.42485
▁spic	-8.43416
▁pho	-8.44048
▁through	-8.44142
▁dirt	-8.446
▁item	-8.44705
▁salon	-8.45106
▁drive	-8.45123
▁charl	-8.4594
▁park	-8.45944
▁cut	-8.46054
k	-8.46594
▁lack	-8.47758
▁gross	-8.48006
▁cream	-8.48308
otte	-8.48526
▁live	-8.48878
▁end	-8.48951
▁blan	-8.48951
▁tell	-8.49447
▁pick	-8.49479
▁thai	-8.49523
▁unfortunate	-8.49607
▁start	-8.49835
▁put	-8.49941
▁se	-8.50172
▁wish	-8.50845
▁co	-8.5097
▁change	-8.51284
ought	-8.51443
▁house	-8.51615
▁serious	-8.51806
yone	-8.51943
▁different	-8.52038
▁waiter	-8.52269
ian	-8.52715
▁lad	-8.52745
▁ridiculous	-8.53167
▁leave	-8.53528
▁gem	-8.53557
▁oh	-8.53652
▁life	-8.53777
▁bring	-8.54013
▁run	-8.54253
▁since	-8.54336
▁where	-8.54352
▁plus	-8.54383
rry	-8.54645
▁wife	-8.55016
▁warm	-8.55067
▁sad	-8.55274
▁show	-8.55435
▁course	-8.5566
▁br	-8.55711
▁point	-8.55838
it	-8.5601
▁smell	-8.56202
▁tru	-8.56246
▁efficient	-8.56249
▁suck	-8.56468
▁regular	-8.56651
▁cost	-8.56783
rom	-8.5702
▁din	-8.57186
▁fan	-8.57216
▁en	-8.57221
▁manage	-8.57514
hile	-8.58177
▁own	-8.58329
▁talk	-8.58636
▁burrito	-8.58805
▁valle	-8.59003
▁st	-8.59499
or	-8.59546
ook	-8.59731
▁hair	-8.59975
▁value	-8.6004
▁sam	-8.6008
▁bartender	-8.6059
▁month	-8.60827
▁second	-8.6111
w	-8.61256
▁let	-8.61472
▁tea	-8.61497
▁size	-8.61533
▁buy	-8.61559
ok	-8.61661
▁ei	-8.61735
▁neighborhood	-8.61759
▁final	-8.62925
▁stop	-8.62949
▁style	-8.63316
▁min	-8.63323
▁pric	-8.63628
ro	-8.63725
▁du	-8.63805
▁deli	-8.64292
▁doctor	-8.64346
▁trip	-8.65087
▁pittsburg	-8.65342
ten	-8.65524
ous	-8.65544
ave	-8.65952
▁yumm	-8.66156
each	-8.66387
▁music	-8.66892
sel	-8.67264
▁charge	-8.67605
▁bean	-8.67738
▁lo	-8.682
▁entire	-8.6837
▁trie	-8.68774
▁line	-8.69753
▁variet	-8.7007
once	-8.70259
▁reason	-8.70476
▁surprise	-8.70619
old	-8.70846
night	-8.71145
▁receive	-8.71785
▁appetizer	-8.72856
▁turn	-8.7287
▁expens	-8.73089
▁fel	-8.73321
▁airport	-8.73408
▁ital	-8.73643
▁serve	-8.74
▁hands	-8.74117
▁bill	-8.74513
▁pasta	-8.7489
▁thought	-8.76055
▁fine	-8.77113
▁extra	-8.77196
▁afford	-8.77444
▁rib	-8.77526
▁decor	-8.77564
▁sit	-8.77586
▁half	-8.77687
▁crowd	-8.77755
▁lit	-8.78154
▁relax	-8.78191
q	-8.78213
▁dessert	-8.78446
▁view	-8.78601
▁plate	-8.79002
▁ice	-8.79029
▁date	-8.79114
▁green	-8.79153
th	-8.79909
▁appointment	-8.80341
▁phone	-8.80356
▁unique	-8.80484
▁hi	-8.80686
verage	-8.81067
▁crisp	-8.81126
▁soon	-8.81227
▁bb	-8.81872
▁tri	-8.81989
ture	-8.82424
l	-8.82496
▁de	-8.82729
▁girl	-8.82825
▁cute	-8.83029
▁light	-8.83487
▁read	-8.83568
▁patient	-8.83738
▁salt	-8.83945
▁guess	-8.84038
go	-8.8429
▁less	-8.84451
▁group	-8.84476
▁cake	-8.84853
nside	-8.84905
ice	-8.84979
▁tables	-8.85107
▁crust	-8.85493
▁sa	-8.86002
▁ze	-8.86257
cre	-8.87228
etter	-8.87598
▁miss	-8.87644
▁bagel	-8.88119
▁sea	-8.88162
ster	-8.88167
▁under	-8.88525
▁ambi	-8.88884
▁yelp	-8.88922
▁leas	-8.89244
most	-8.90126
▁attitude	-8.90224
▁plent	-8.9025
▁hit	-8.90355
▁hate	-8.90451
us	-8.91387
▁emp	-8.9149
▁mistake	-8.91503
▁wor	-8.91503
ison	-8.91709
▁owners	-8.91877
▁name	-8.92001
▁watch	-8.92127
▁recent	-8.92373
▁near	-8.92454
▁buffet	-8.92518
lly	-8.92668
▁hav	-8.92736
▁sub	-8.92903
▁rock	-8.93082
▁exceptional	-8.93108
▁expect	-8.93114
▁welcom	-8.93568
▁happen	-8.93875
▁add	-8.93911
ork	-8.93968
▁finish	-8.93975
▁believe	-8.94279
est	-8.94335
▁class	-8.94528
▁short	-8.94565
▁noodle	-8.94718
ill	-8.94872
▁courte	-8.94971
▁product	-8.95565
▁ye	-8.95732
▁ingredient	-8.95771
▁prompt	-8.96511
▁yes	-8.96588
▁stopp	-8.96661
▁mean	-8.96697
▁mess	-8.97328
▁crap	-8.97367
▁door	-8.97858
▁veggie	-8.97882
▁remember	-8.97887
ring	-8.97917
kept	-8.98703
▁move	-8.98841
▁smile	-8.99069
▁interest	-8.9907
▁oil	-8.9917
town	-8.99422
te	-8.99423
g	-8.99959
▁bathroom	-9.00055
▁reasonably	-9.00212
nd	-9.00388
olid	-9.00618
▁pa	-9.00638
▁fab	-9.01077
▁abo	-9.01523
▁continue	-9.01624
▁couple	-9.0163
ny	-9.01723
▁spa	-9.01848
ation	-9.02027
▁past	-9.02111
▁greas	-9.02632
ulous	-9.02728
▁potato	-9.03038
by	-9.03328
▁understand	-9.03446
▁trust	-9.03448
▁sign	-9.03832
▁fix	-9.03966
▁enviro	-9.04045
▁ga	-9.04779
▁tire	-9.04903
▁accommodat	-9.05028
▁clear	-9.05236
▁card	-9.05685
▁morning	-9.05861
▁las	-9.05979
▁mak	-9.06157
▁sat	-9.0639
▁tip	-9.06506
ese	-9.06527
food	-9.06712
stead	-9.06943
▁piece	-9.08229
▁tak	-9.0849
▁game	-9.08609
▁serv	-9.0868
▁mo	-9.09057
▁polite	-9.09402
me	-9.0949
▁hell	-9.09561
professional	-9.09976
▁spend	-9.09995
x	-9.10474
▁team	-9.10513
▁o	-9.10652
▁margarita	-9.10967
▁sunday	-9.11362
ey	-9.11388
cook	-9.11437
▁counter	-9.1146
▁entree	-9.11483
▁bite	-9.11621
▁play	-9.12053
▁true	-9.1207
as	-9.12076
▁weekend	-9.12401
▁negative	-9.12549
z	-9.12608
ick	-9.12643
▁issue	-9.1284
▁glad	-9.12936
▁needles	-9.13069
ay	-9.13396
ef	-9.13411
▁health	-9.1344
▁patio	-9.13619
▁establishment	-9.13627
▁hand	-9.13812
at	-9.1384
▁appreciate	-9.13867
▁pool	-9.13908
▁possibl	-9.14036
▁pancake	-9.1452
▁dollar	-9.14525
▁onion	-9.14606
▁garlic	-9.14698
▁joint	-9.14779
▁vibe	-9.14969
▁low	-9.1506
▁answer	-9.15249
▁amount	-9.15253
▁bowl	-9.1542
ate	-9.15514
ary	-9.15648
▁ma	-9.15777
▁mention	-9.16356
▁cra	-9.16397
▁hospital	-9.16409
▁shopp	-9.16969
▁party	-9.16978
▁question	-9.17098
▁facilit	-9.17271
▁fri	-9.17499
til	-9.17567
ne	-9.17633
▁thorough	-9.17651
▁save	-9.17753
▁fu	-9.18166
ody	-9.18326
▁color	-9.18526
▁lob	-9.18538
▁book	-9.18654
veral	-9.19117
and	-9.1914
▁anyway	-9.19701
dden	-9.19904
▁repair	-9.20101
▁sales	-9.20362
▁grill	-9.20402
▁cit	-9.20595
▁bother	-9.20701
ame	-9.20758
▁ver	-9.2099
▁saturday	-9.21065
▁tender	-9.21073
▁purchase	-9.21167
▁pedicure	-9.21258
▁arrive	-9.2137
way	-9.21625
▁rea	-9.21633
ng	-9.21795
▁friday	-9.22459
time	-9.22588
▁tw	-9.23136
ose	-9.23339
▁donut	-9.23572
ted	-9.23815
ter	-9.23826
▁greet	-9.23835
ness	-9.23904
▁street	-9.24003
rizon	-9.24174
▁rate	-9.24403
ugh	-9.24473
read	-9.24535
▁personal	-9.24576
▁wedding	-9.24933
▁strip	-9.25056
▁dive	-9.25067
hi	-9.2526
price	-9.25595
▁generous	-9.25614
▁glass	-9.25732
▁d	-9.26106
▁satisfie	-9.26591
▁chain	-9.27234
▁obvious	-9.27239
▁scott	-9.27365
▁evening	-9.276
▁almo	-9.2765
▁basic	-9.27962
▁hung	-9.28513
▁walke	-9.28685
p	-9.28876
▁writ	-9.29068
▁rest	-9.2937
phen	-9.29455
▁pepper	-9.29735
▁bare	-9.30015
▁certain	-9.30159
▁potatoe	-9.302
lf	-9.30527
▁hear	-9.30545
mad	-9.30708
▁list	-9.30752
▁dis	-9.30771
shame	-9.30835
▁season	-9.30986
▁set	-9.31063
▁slice	-9.31074
▁welcome	-9.31211
▁l	-9.31384
▁quiet	-9.3145
▁pai	-9.32093
▁pie	-9.32736
▁refill	-9.32958
age	-9.33013
▁none	-9.33092
▁ta	-9.33105
▁deserve	-9.33188
▁yoursel	-9.33222
pm	-9.33498
▁gyro	-9.33814
▁haircut	-9.33824
▁di	-9.33907
▁school	-9.34208
▁chef	-9.34303
▁daughter	-9.3452
▁ra	-9.34706
runch	-9.34821
▁enchilada	-9.34931
▁consider	-9.35019
▁wash	-9.35028
▁chili	-9.35041
wo	-9.35083
▁world	-9.35273
▁hope	-9.35395
▁mon	-9.35436
▁tomato	-9.35818
ago	-9.36033
▁wall	-9.36068
▁na	-9.36149
▁detail	-9.36496
▁red	-9.36597
eaten	-9.36672
▁filling	-9.3668
▁rating	-9.37031
more	-9.37171
▁boyfriend	-9.37403
▁animal	-9.37463
▁dentist	-9.37627
up	-9.37776
▁luck	-9.37877
▁h	-9.38045
▁birthday	-9.38087
▁provide	-9.38236
▁bac	-9.38479
▁general	-9.3852
▁rip	-9.38536
▁particular	-9.38549
▁stand	-9.38567
et	-9.38808
▁rush	-9.39114
ward	-9.3914
▁feeling	-9.39185
▁driver	-9.39289
▁toast	-9.39725
▁r	-9.40069
▁organiz	-9.40526
▁informati	-9.40541
▁gift	-9.40631
▁south	-9.40865
▁yea	-9.40972
▁child	-9.41029
▁floor	-9.41344
▁annoy	-9.41345
▁u	-9.41432
▁vegetable	-9.41584
▁terrifi	-9.41621
▁vet	-9.41722
▁mom	-9.41758
line	-9.42173
the	-9.42181
▁four	-9.42245
▁classic	-9.42371
▁prepare	-9.4238
ird	-9.4267
▁cashier	-9.43015
▁positive	-9.43263
▁dressing	-9.43337
▁massage	-9.43497
▁explain	-9.43501
▁cafe	-9.4355
sual	-9.44236
▁word	-9.44311
omen	-9.44348
▁eye	-9.44411
rench	-9.44534
▁count	-9.44554
buck	-9.45136
▁stick	-9.453
een	-9.45405
ond	-9.45595
▁mov	-9.45596
▁kitchen	-9.45697
▁attenti	-9.45847
▁reservation	-9.45952
▁sour	-9.46052
▁sausage	-9.46193
ble	-9.46215
▁desert	-9.46232
▁pop	-9.46369
▁diner	-9.4646
▁comfort	-9.46755
▁don	-9.46759
▁butter	-9.46799
▁white	-9.46801
▁exact	-9.47185
de	-9.47237
▁convenient	-9.47718
▁giv	-9.47897
▁chocolate	-9.47951
expens	-9.48307
▁sta	-9.48324
▁might	-9.4834
ped	-9.48413
▁spring	-9.48822
▁cab	-9.48914
▁standard	-9.48962
▁idea	-9.49087
▁tasting	-9.49514
▁con	-9.49538
▁vegetarian	-9.49738
▁everyt	-9.50203
▁request	-9.50248
▁per	-9.50356
▁fill	-9.50436
ent	-9.507
▁notice	-9.50725
▁tortilla	-9.50771
▁choos	-9.50781
▁club	-9.50869
▁corn	-9.50965
▁burn	-9.51175
▁strong	-9.51195
▁knowledg	-9.51209
▁fail	-9.51399
▁pass	-9.51407
▁worker	-9.51496
▁loud	-9.51689
ard	-9.5179
▁immediate	-9.52084
▁ear	-9.52153
▁refuse	-9.52234
▁opinion	-9.5234
▁su	-9.52446
▁la	-9.52854
▁chance	-9.52909
▁apparent	-9.5341
▁mall	-9.53548
▁mind	-9.53689
▁mix	-9.54259
mart	-9.54697
▁bla	-9.54814
▁sometime	-9.54849
▁touch	-9.54889
ated	-9.55059
▁spen	-9.55097
▁typical	-9.55291
▁thin	-9.55327
▁fact	-9.55462
ada	-9.56296
▁main	-9.56576
tle	-9.56664
▁sent	-9.5688
▁ruin	-9.56895
▁excuse	-9.57212
▁pack	-9.57301
almon	-9.57367
▁curr	-9.57389
▁flower	-9.57486
▁together	-9.57548
▁sport	-9.57694
▁includ	-9.57782
hill	-9.57942
▁topping	-9.58143
▁cookie	-9.58361
▁rare	-9.58431
▁folk	-9.58432
▁gar	-9.58542
ion	-9.5855
am	-9.58628
▁discount	-9.59175
▁sound	-9.59299
▁expectation	-9.59543
▁train	-9.59632
▁safe	-9.59712
▁son	-9.59867
▁type	-9.60228
▁heart	-9.60342
▁present	-9.60775
▁follow	-9.60883
▁normal	-9.60894
▁outdoor	-9.60932
▁state	-9.6112
▁practice	-9.6131
▁mac	-9.61609
ree	-9.61808
▁easi	-9.61873
plain	-9.61899
▁correct	-9.62072
▁thre	-9.62321
▁coupon	-9.62353
▁center	-9.62394
oc	-9.6271
cular	-9.62879
▁fee	-9.62959
sda	-9.63036
ware	-9.6313
▁space	-9.6323
▁important	-9.63516
▁number	-9.64107
▁complaint	-9.64172
▁fa	-9.64213
ru	-9.64345
▁process	-9.64398
cy	-9.64408
▁frustrat	-9.64563
▁juic	-9.6468
▁american	-9.64897
▁tv	-9.64942
▁damn	-9.65011
▁availab	-9.65118
▁decide	-9.65184
▁az	-9.65211
▁garden	-9.65296
▁chair	-9.65344
cross	-9.65485
▁summer	-9.65622
accept	-9.65752
▁hang	-9.65756
specta	-9.65839
▁ring	-9.65941
▁mouth	-9.66004
▁window	-9.66201
▁single	-9.66239
▁j	-9.66246
▁whi	-9.66248
▁des	-9.66561
my	-9.66714
kay	-9.66805
▁result	-9.66809
▁hostess	-9.66819
ather	-9.66968
▁japan	-9.67111
▁arriv	-9.67345
▁complain	-9.67372
king	-9.6762
▁young	-9.67665
▁genuine	-9.6804
▁serving	-9.68097
▁hole	-9.68228
▁dip	-9.68257
▁cloth	-9.68377
▁five	-9.68451
itali	-9.68488
ible	-9.68528
▁bu	-9.68558
▁bl	-9.68887
▁market	-9.69057
▁rent	-9.69204
▁head	-9.69224
▁buck	-9.693
ic	-9.69403
▁runn	-9.69534
▁box	-9.6966
▁thumb	-9.70008
▁support	-9.70168
▁bike	-9.70266
▁listen	-9.70446
ozen	-9.70781
▁black	-9.70904
▁stock	-9.71162
▁joke	-9.71178
▁speak	-9.71675
▁face	-9.71805
▁wi	-9.71824
▁recommendation	-9.71916
▁mine	-9.72175
for	-9.72273
▁baker	-9.72539
▁lov	-9.72643
ers	-9.72782
▁nurse	-9.73053
▁wrap	-9.73161
▁refund	-9.73437
▁dress	-9.73468
▁stylist	-9.7354
▁asian	-9.7365
bage	-9.73709
▁perfection	-9.7375
▁suc	-9.73762
▁building	-9.73869
▁venue	-9.73873
red	-9.73907
▁ba	-9.73935
▁cup	-9.74116
▁joe	-9.74207
▁frequent	-9.74424
▁apartment	-9.74454
▁share	-9.74478
▁re	-9.74518
▁carne	-9.74683
he	-9.74718
▁bottom	-9.7475
▁compliment	-9.74758
long	-9.75059
▁stor	-9.75179
though	-9.75312
▁suggest	-9.75317
▁reliabl	-9.75411
▁air	-9.75485
▁guest	-9.75586
▁waffle	-9.75745
▁mushroom	-9.75752
▁toda	-9.75755
uce	-9.75834
▁wonder	-9.76044
▁yum	-9.7611
sh	-9.76132
▁receiv	-9.76371
▁original	-9.7642
back	-9.76469
▁pet	-9.77122
▁par	-9.7721
▁matter	-9.7724
li	-9.77301
▁heaven	-9.7747
▁station	-9.77487
▁respect	-9.77501
▁cover	-9.77617
▁apolog	-9.77669
▁ranch	-9.77675
▁sell	-9.77803
▁k	-9.78057
▁level	-9.78107
▁combo	-9.78146
id	-9.78203
▁beat	-9.78206
▁onl	-9.7833
rs	-9.78361
▁surprising	-9.78607
▁occasion	-9.78691
▁packe	-9.78732
▁unbelievabl	-9.78805
▁boy	-9.78843
▁case	-9.79034
▁pad	-9.79071
▁los	-9.79141
▁bo	-9.79169
▁spice	-9.79171
comfortabl	-9.79175
▁theater	-9.79193
▁lett	-9.79296
▁event	-9.79419
▁entertain	-9.79494
▁bake	-9.79526
▁auto	-9.79903
▁pub	-9.79961
ge	-9.80357
▁client	-9.80532
▁melt	-9.80591
▁chew	-9.80632
▁tradition	-9.80696
▁pleasur	-9.80718
ple	-9.80735
▁skill	-9.80813
▁ride	-9.80951
▁broke	-9.81167
▁pull	-9.81288
▁cash	-9.81411
▁sense	-9.81487
▁cr	-9.81501
▁art	-9.81587
▁orange	-9.81593
yon	-9.81676
eous	-9.81701
▁bell	-9.8182
▁guac	-9.82022
▁dai	-9.82537
▁vehicle	-9.82658
▁dark	-9.8267
▁manner	-9.83043
▁confus	-9.83193
▁tech	-9.83538
tuna	-9.83545
▁machine	-9.83634
▁trash	-9.83742
▁kidd	-9.83923
▁flat	-9.83924
▁cleaning	-9.83929
▁contact	-9.841
▁invit	-9.84136
law	-9.84392
▁condition	-9.84398
▁honey	-9.84451
low	-9.84493
etc	-9.84495
▁pain	-9.84654
▁paper	-9.84704
▁setting	-9.84853
▁app	-9.85095
land	-9.85123
▁movie	-9.85182
▁bag	-9.854
ren	-9.85605
▁pri	-9.85755
▁neat	-9.86213
▁gel	-9.86307
▁medium	-9.86373
man	-9.86395
ade	-9.86513
wis	-9.86661
▁manicure	-9.86676
▁afternoon	-9.86683
▁ha	-9.86936
▁im	-9.87241
▁charm	-9.87359
▁cat	-9.87428
▁gym	-9.87432
ghett	-9.87456
▁bottle	-9.87532
staff	-9.87728
ra	-9.87943
▁shot	-9.88259
▁flight	-9.8857
yaki	-9.88869
▁viet	-9.88969
ood	-9.89171
▁mile	-9.89175
gg	-9.89244
▁grocer	-9.89312
▁supposed	-9.89562
▁dealership	-9.89709
▁section	-9.89751
▁brand	-9.89777
▁gon	-9.89824
erall	-9.90018
▁hum	-9.90032
▁mcdonald	-9.90084
names	-9.90209
▁vegan	-9.90392
▁smoke	-9.90409
▁proper	-9.90644
rd	-9.90807
▁cocktail	-9.90858
▁fit	-9.90866
▁hold	-9.91059
▁bun	-9.91133
▁gorg	-9.91369
▁chin	-9.91375
tic	-9.91486
zer	-9.91612
▁produc	-9.91784
▁parm	-9.91935
▁earl	-9.92141
▁limit	-9.92285
▁spina	-9.92288
ious	-9.92452
▁fall	-9.92456
▁fanc	-9.92591
▁update	-9.92602
▁picture	-9.92824
ish	-9.92855
ean	-9.92862
▁warn	-9.93517
dy	-9.93519
▁pleas	-9.93531
▁meatball	-9.93623
▁roast	-9.93652
▁bigge	-9.93813
dental	-9.94022
▁furni	-9.94131
expected	-9.94141
▁straight	-9.94416
▁pot	-9.94549
▁brown	-9.94616
hy	-9.94761
▁apologize	-9.9486
▁met	-9.95038
▁fruit	-9.95224
credi	-9.95312
▁interior	-9.95314
▁dine	-9.95372
▁install	-9.95571
▁turk	-9.95622
▁biscuit	-9.95628
▁plan	-9.95669
▁schedule	-9.95888
▁nor	-9.95969
thetic	-9.96037
▁bak	-9.96043
▁agree	-9.96487
▁mark	-9.96735
▁penn	-9.96977
▁nei	-9.97023
▁break	-9.97057
▁become	-9.97452
▁pastr	-9.9757
▁fire	-9.97832
▁bed	-9.97963
▁prepar	-9.98019
▁fat	-9.98041
▁mechanic	-9.98104
▁quote	-9.98106
▁fajita	-9.98517
▁resort	-9.98518
▁pita	-9.98631
cious	-9.98823
▁soda	-9.98863
▁e	-9.98917
▁major	-9.98934
▁chic	-9.99017
▁thick	-9.99319
▁delightful	-9.99399
▁v	-9.99532
▁bor	-9.99717
▁deep	-9.99802
▁lat	-10.0007
▁accept	-10.0042
▁nightmare	-10.0064
▁skip	-10.0092
▁lemon	-10.0107
▁gold	-10.0119
unch	-10.0122
▁replace	-10.014
▁omelet	-10.0142
any	-10.0145
▁except	-10.0147
▁wal	-10.0179
ur	-10.0207
▁forgot	-10.021
▁olive	-10.0216
▁laid	-10.0219
▁meet	-10.0224
▁mar	-10.0237
▁tap	-10.0253
▁acknowledge	-10.0281
▁ground	-10.0303
ew	-10.0309
▁loyal	-10.0324
ern	-10.0328
▁ex	-10.0331
▁shit	-10.0332
▁cali	-10.034
▁piss	-10.036
▁die	-10.0364
▁soooo	-10.0365
▁nacho	-10.0368
▁rental	-10.0376
▁broth	-10.0381
el	-10.0395
▁grab	-10.041
▁brew	-10.0411
▁concern	-10.0416
▁chill	-10.0458
▁tempe	-10.0462
▁pharmac	-10.0502
▁batter	-10.0508
▁communi	-10.0516
crew	-10.0532
▁travel	-10.0543
▁foot	-10.0551
▁incompeten	-10.0552
alo	-10.0562
▁sh	-10.0564
▁east	-10.0568
▁cleaner	-10.057
▁nas	-10.0591
doubt	-10.0619
▁moder	-10.0621
friendly	-10.0635
lian	-10.0641
▁response	-10.066
▁cuisine	-10.0682
▁win	-10.0708
▁def	-10.0723
▁excit	-10.0749
▁sever	-10.0753
▁pla	-10.0761
▁rich	-10.0761
▁impeccabl	-10.0774
▁kor	-10.0781
▁john	-10.0783
partment	-10.0807
▁clue	-10.0827
▁fry	-10.084
▁conversation	-10.0857
▁bruschetta	-10.0867
▁situation	-10.0867
▁refreshing	-10.087
▁craving	-10.0882
men	-10.0897
▁act	-10.0901
▁maintain	-10.0903
▁apple	-10.091
um	-10.0924
▁twi	-10.0926
▁subs	-10.0935
head	-10.0938
rew	-10.0952
mus	-10.0957
▁remodel	-10.0959
▁smooth	-10.0961
▁stu	-10.0995
▁west	-10.0996
▁shoe	-10.0997
▁combination	-10.1007
▁learn	-10.1014
▁casino	-10.1026
▁post	-10.1038
▁mush	-10.1051
ie	-10.1052
▁register	-10.1055
u	-10.1071
▁ambien	-10.1081
▁groupon	-10.1081
▁hawaii	-10.11
▁girlfriend	-10.1102
▁mike	-10.1105
▁realize	-10.1113
▁handle	-10.1124
▁dim	-10.1163
▁filet	-10.1164
▁intern	-10.1171
▁chose	-10.1173
▁bab	-10.1177
▁chang	-10.1182
▁grand	-10.1198
▁ignore	-10.12
work	-10.1232
▁mother	-10.1236
▁ho	-10.126
▁wro	-10.1272
organiz	-10.1276
fu	-10.1289
▁bon	-10.129
▁member	-10.1297
▁polish	-10.1298
▁grav	-10.1309
▁secur	-10.131
ide	-10.1316
▁court	-10.1316
cake	-10.1326
▁sp	-10.133
▁tuesday	-10.1341
▁restroom	-10.1342
▁zo	-10.1362
▁liv	-10.1373
nia	-10.143
▁design	-10.1447
▁north	-10.145
▁sooo	-10.1474
▁india	-10.1485
▁equip	-10.1488
▁temp	-10.1488
▁email	-10.1493
▁satisfy	-10.1494
▁allow	-10.15
▁dea	-10.1501
ine	-10.1516
▁ac	-10.1521
▁bob	-10.1558
▁golf	-10.1565
▁buff	-10.1585
▁monday	-10.1598
site	-10.1599
▁carpet	-10.1639
▁crunch	-10.1649
▁ton	-10.1666
▁previous	-10.1688
▁difficult	-10.1688
▁prim	-10.1716
tion	-10.1722
▁heat	-10.1741
▁laugh	-10.1754
▁creativ	-10.1774
▁step	-10.1778
▁enter	-10.1781
▁middle	-10.1789
▁compassion	-10.179
▁pan	-10.1836
ta	-10.1844
ar	-10.1858
▁ch	-10.1867
▁cal	-10.1873
rocco	-10.1889
ship	-10.1897
▁smok	-10.1911
▁mash	-10.1935
▁barber	-10.1939
▁access	-10.1943
▁bright	-10.1946
▁booth	-10.1948
▁personalit	-10.1985
▁patron	-10.1986
▁lea	-10.2006
mari	-10.2011
▁key	-10.2014
▁speed	-10.2022
▁propert	-10.2024
ced	-10.2027
▁kne	-10.2031
▁helping	-10.2035
v	-10.2053
▁blue	-10.2053
▁ignor	-10.2098
▁ravioli	-10.2099
▁sti	-10.2101
▁host	-10.2116
▁range	-10.2121
▁owne	-10.2129
lo	-10.2157
▁spoke	-10.2158
▁cancel	-10.216
▁ran	-10.2163
▁cars	-10.2176
▁roman	-10.2182
▁promise	-10.221
ult	-10.2213
sk	-10.2214
▁drop	-10.2216
▁appear	-10.2232
ul	-10.2241
▁addition	-10.2251
▁technician	-10.2258
happ	-10.226
▁jewel	-10.2264
▁hill	-10.2275
aw	-10.2278
▁screw	-10.2286
▁band	-10.2307
▁wen	-10.2346
▁hamburger	-10.2365
▁texture	-10.2365
tz	-10.2366
▁regard	-10.2367
▁push	-10.2373
▁blood	-10.2378
ench	-10.2383
▁prior	-10.2402
▁carry	-10.2411
▁slight	-10.2429
▁mis	-10.2433
amo	-10.2459
▁leav	-10.2471
▁corporat	-10.2473
▁embarrass	-10.2474
▁road	-10.2479
▁apart	-10.2502
▁excite	-10.2503
▁ball	-10.2511
▁sum	-10.2521
▁express	-10.2532
▁equal	-10.2533
▁sample	-10.256
▁constant	-10.2583
▁god	-10.2585
▁favor	-10.2586
▁upset	-10.2632
ulti	-10.2634
▁lasagn	-10.2638
tten	-10.264
pid	-10.2655
▁beds	-10.2661
par	-10.2671
▁ju	-10.2683
▁quai	-10.2692
▁pro	-10.2718
▁sale	-10.2723
▁imagine	-10.2732
▁chi	-10.2734
▁fe	-10.275
end	-10.2789
▁fell	-10.279
ogg	-10.2794
pric	-10.28
▁system	-10.2805
▁hook	-10.2816
▁throw	-10.2825
eat	-10.2827
▁smoothie	-10.2859
▁encounter	-10.2863
▁additional	-10.2871
▁cust	-10.2882
▁christ	-10.2917
timate	-10.2951
▁kick	-10.2967
▁hu	-10.2982
▁york	-10.2983
laz	-10.2985
▁sleep	-10.2988
▁base	-10.2988
▁hash	-10.299
▁seasoning	-10.2997
▁shake	-10.3002
ior	-10.3015
ome	-10.3016
▁snack	-10.3033
▁clinic	-10.3033
▁figure	-10.3033
j	-10.3048
▁treatment	-10.3061
▁nob	-10.3081
co	-10.3083
▁pets	-10.3092
▁duck	-10.3105
▁grille	-10.3134
▁board	-10.3141
▁gr	-10.3145
▁polic	-10.3186
▁members	-10.3204
▁museum	-10.3208
▁send	-10.3211
▁comment	-10.3215
mon	-10.3221
▁forget	-10.3233
▁dri	-10.3242
jun	-10.3251
▁pump	-10.3267
▁talent	-10.3268
▁craft	-10.3285
▁exam	-10.33
▁truck	-10.3316
▁stomach	-10.3326
▁describe	-10.3326
oni	-10.3348
ketch	-10.3441
▁skin	-10.3443
rab	-10.3484
▁steam	-10.3499
▁ke	-10.3506
▁pickle	-10.3516
teri	-10.3518
▁dropp	-10.3565
▁quesadilla	-10.3567
▁adult	-10.3567
▁shuttle	-10.3567
▁bet	-10.3569
▁locat	-10.3576
hin	-10.3603
▁compar	-10.3607
▁warrant	-10.3627
ind	-10.3647
sty	-10.3651
eral	-10.3661
ake	-10.3664
ily	-10.3665
▁artist	-10.3669
▁camp	-10.3683
▁strange	-10.3689
▁decision	-10.3689
▁surpris	-10.3697
▁willing	-10.3711
▁remind	-10.3721
▁gentlem	-10.3734
ole	-10.3741
▁relative	-10.3751
▁shady	-10.3762
▁dough	-10.3777
oke	-10.378
▁repeat	-10.3784
▁freak	-10.3794
▁odd	-10.3795
▁lu	-10.3798
▁kill	-10.3828
▁banana	-10.3874
▁ticket	-10.3875
▁double	-10.3885
▁chile	-10.3894
▁blow	-10.391
▁tour	-10.3912
▁kar	-10.3918
▁parent	-10.3934
▁associate	-10.3938
▁gentle	-10.3957
▁begin	-10.3959
▁driv	-10.3965
▁cater	-10.3983
worth	-10.3985
▁gluten	-10.4001
▁michael	-10.4001
▁thursday	-10.4001
▁yellow	-10.4003
ature	-10.4004
▁non	-10.4012
▁ph	-10.4015
▁juice	-10.4023
▁va	-10.4038
lines	-10.4044
▁calzone	-10.4065
▁attempt	-10.4065
▁lay	-10.4068
▁suggestion	-10.4085
▁engl	-10.4099
▁pi	-10.4103
▁energ	-10.4128
▁holiday	-10.4129
not	-10.4129
▁da	-10.4135
▁si	-10.4154
tuck	-10.416
▁sun	-10.4163
nut	-10.4176
▁chris	-10.4181
▁load	-10.4183
▁fal	-10.4188
▁strawberr	-10.4194
nal	-10.4202
▁unit	-10.4208
▁chop	-10.421
▁towel	-10.421
cation	-10.4215
▁inform	-10.4216
▁shirt	-10.4233
▁differen	-10.4244
▁luke	-10.4261
pp	-10.4282
▁attend	-10.4296
cale	-10.4307
▁famili	-10.4307
▁gi	-10.4308
ove	-10.4315
▁chur	-10.4319
▁steakhouse	-10.4327
▁clos	-10.4332
▁avail	-10.4362
▁moment	-10.4362
▁receipt	-10.4389
no	-10.4404
▁smil	-10.4418
▁bas	-10.4442
▁phil	-10.4444
ight	-10.4457
▁despi	-10.4461
▁package	-10.447
▁beh	-10.4477
do	-10.4492
▁kat	-10.4495
nivers	-10.4506
etting	-10.4507
ke	-10.4507
pe	-10.4512
▁dream	-10.4523
▁split	-10.4526
ding	-10.453
▁trans	-10.4532
▁earn	-10.4552
mo	-10.4556
▁filt	-10.4559
plant	-10.456
▁sort	-10.4568
▁fashion	-10.4587
▁jam	-10.4596
▁omelette	-10.4601
▁comf	-10.4603
▁include	-10.4656
ier	-10.4675
ca	-10.4688
▁hub	-10.4718
fish	-10.472
▁caesar	-10.4725
▁sister	-10.4732
mas	-10.4736
▁discover	-10.4737
▁shape	-10.4744
▁brisk	-10.4748
▁beside	-10.4764
▁ja	-10.4764
▁china	-10.4787
▁pic	-10.4789
▁central	-10.4793
▁mary	-10.4803
pleasant	-10.481
▁communicati	-10.4812
led	-10.4818
▁rubber	-10.4844
nic	-10.4845
▁delight	-10.4861
▁steve	-10.4867
▁factor	-10.4874
▁exhibit	-10.4932
▁receptionist	-10.4933
▁wonton	-10.494
▁purchas	-10.4964
▁decorat	-10.4969
▁bank	-10.4973
▁wax	-10.4982
▁sof	-10.4984
ist	-10.4985
la	-10.5
▁pedi	-10.5002
▁airline	-10.5007
▁bone	-10.5037
airs	-10.5063
▁milk	-10.5093
▁wear	-10.5099
ular	-10.5125
▁shower	-10.5159
▁denny	-10.5161
▁corner	-10.5198
we	-10.5201
▁hop	-10.5203
▁regret	-10.5215
az	-10.5236
▁ku	-10.524
▁impression	-10.5253
▁brake	-10.5255
upon	-10.5259
▁provid	-10.5268
lous	-10.5274
▁muffin	-10.5286
▁upgrade	-10.5289
▁chow	-10.532
▁wednesday	-10.5359
▁message	-10.5362
▁competiti	-10.5384
▁van	-10.5407
▁latte	-10.5421
▁prefer	-10.5432
▁disrespect	-10.5432
▁cent	-10.5442
▁teacher	-10.5455
▁wif	-10.5456
▁web	-10.5501
▁squa	-10.5509
▁hype	-10.5509
▁beginn	-10.5511
▁disa	-10.552
▁rep	-10.5522
▁shar	-10.553
rious	-10.5536
ney	-10.5541
ton	-10.5545
▁photo	-10.5545
bread	-10.5546
▁frank	-10.5584
▁stella	-10.5598
▁plane	-10.5609
cchi	-10.5631
lame	-10.5634
her	-10.5641
▁charg	-10.5654
▁dump	-10.5656
▁marina	-10.5658
erous	-10.5664
tw	-10.5682
▁gree	-10.5697
what	-10.5706
▁print	-10.5707
▁davi	-10.5719
▁offering	-10.5721
▁effort	-10.5729
▁pressure	-10.5729
▁instructor	-10.573
▁treasure	-10.5805
hose	-10.5809
▁ve	-10.5813
▁plant	-10.5825
consistent	-10.5854
house	-10.5873
descen	-10.588
▁peanut	-10.5881
▁jim	-10.5882
▁expert	-10.5884
▁staple	-10.5887
ite	-10.5906
▁ups	-10.5908
▁maint	-10.5911
▁dan	-10.5914
▁suit	-10.5915
▁fool	-10.5925
▁test	-10.595
▁scallop	-10.6035
▁microwave	-10.6036
▁record	-10.6036
▁giant	-10.6037
▁ador	-10.6047
potle	-10.6059
▁hurt	-10.6072
ut	-10.6082
▁mani	-10.6096
▁barista	-10.6115
iful	-10.6134
▁jack	-10.6137
▁surge	-10.6145
su	-10.6154
▁mi	-10.6157
nto	-10.616
▁meeting	-10.6165
lbert	-10.6175
▁dance	-10.6195
off	-10.6203
kin	-10.6214
▁paint	-10.6219
▁groom	-10.6235
▁lol	-10.6247
▁kim	-10.6248
▁har	-10.6268
▁pretzel	-10.6272
▁underwhelm	-10.6274
▁coco	-10.6288
hooter	-10.6301
curate	-10.6302
▁yell	-10.6314
vice	-10.6314
kward	-10.6323
ri	-10.6323
ol	-10.6335
dding	-10.6347
▁insane	-10.6353
▁desire	-10.6355
▁cheeseburger	-10.6356
▁costume	-10.6367
▁finger	-10.637
▁histor	-10.6382
▁stress	-10.6395
raw	-10.64
▁german	-10.6432
ont	-10.6445
▁leftover	-10.6448
like	-10.6465
etic	-10.6474
▁jerk	-10.6518
▁frame	-10.6527
▁shock	-10.6528
▁greete	-10.6577
▁balance	-10.6596
ence	-10.6599
ex	-10.6604
▁mill	-10.6611
▁passion	-10.6622
▁grea	-10.6666
▁scene	-10.6666
▁feed	-10.669
▁catch	-10.6693
▁macaron	-10.6706
▁del	-10.6718
beat	-10.674
▁gate	-10.6746
▁hire	-10.6751
▁compare	-10.676
▁approach	-10.6762
▁southwest	-10.6762
▁further	-10.6762
▁arrangement	-10.6763
▁bud	-10.6778
rami	-10.6782
▁mid	-10.6793
uck	-10.6802
▁exceed	-10.6805
ama	-10.682
▁fuck	-10.6822
edict	-10.6843
▁honor	-10.6845
▁idiot	-10.6846
▁winner	-10.6851
▁colle	-10.6881
dur	-10.6891
▁basi	-10.6892
▁memor	-10.6921
tting	-10.6925
▁avocado	-10.693
▁confirm	-10.693
▁proceed	-10.6931
▁bug	-10.6931
▁toilet	-10.6933
▁platter	-10.694
▁sooooo	-10.6945
here	-10.6951
▁respond	-10.6952
▁assist	-10.6963
▁ro	-10.6976
fi	-10.6998
▁pour	-10.6998
▁books	-10.7003
▁match	-10.7005
▁fav	-10.7006
▁switch	-10.7015
▁quantit	-10.7016
▁applebee	-10.7016
eye	-10.7017
▁cant	-10.7026
ant	-10.703
▁careful	-10.7048
▁beverage	-10.705
▁leg	-10.7052
ky	-10.7059
ts	-10.7065
▁gre	-10.7066
▁score	-10.7079
▁terminal	-10.7102
▁urgen	-10.7123
▁rave	-10.7158
perio	-10.7161
even	-10.7165
ving	-10.7176
lid	-10.7178
▁draft	-10.7188
▁silver	-10.7189
▁refri	-10.719
▁insult	-10.7192
▁search	-10.7195
cle	-10.72
ura	-10.7203
▁stink	-10.7222
mail	-10.7247
are	-10.7269
stic	-10.7274
▁hoagie	-10.7276
▁specific	-10.7277
▁priva	-10.7281
▁thrill	-10.7286
▁yelper	-10.7308
warm	-10.7316
ile	-10.7325
▁dar	-10.7327
ck	-10.7332
▁po	-10.7345
ded	-10.735
ber	-10.7358
how	-10.7362
▁chunk	-10.7365
▁ultimate	-10.7365
▁bri	-10.7366
▁alteration	-10.7366
▁queen	-10.7369
▁divers	-10.7373
▁boot	-10.7408
▁slo	-10.7435
▁wont	-10.7449
▁display	-10.7454
▁guarantee	-10.7455
▁student	-10.7456
▁extensi	-10.7459
ating	-10.7464
▁yog	-10.7466
▁foo	-10.748
▁site	-10.7497
▁sus	-10.7517
▁ti	-10.7517
ast	-10.7523
erson	-10.753
ak	-10.7531
▁wa	-10.7541
▁secret	-10.7544
▁champaign	-10.7545
▁natural	-10.7545
▁tamale	-10.7546
▁clam	-10.7549
▁depo	-10.7576
ad	-10.7588
▁thankful	-10.7601
▁groomer	-10.7604
od	-10.7621
▁oyster	-10.7635
▁prescription	-10.7636
▁pair	-10.7641
▁pe	-10.7648
over	-10.7659
▁highlight	-10.7672
▁orient	-10.7674
rella	-10.7693
▁wild	-10.77
imi	-10.7708
▁direct	-10.7721
ap	-10.773
▁current	-10.7735
▁tim	-10.7742
▁claim	-10.7749
▁lake	-10.775
bor	-10.7771
sa	-10.7779
▁cl	-10.7785
il	-10.7786
ma	-10.7805
▁basket	-10.7822
▁dad	-10.7834
▁brother	-10.7854
▁le	-10.7854
▁outd	-10.7858
▁stain	-10.788
himi	-10.7888
▁ya	-10.7893
▁plann	-10.792
▁ham	-10.792
▁ten	-10.793
▁pu	-10.794
msel	-10.7941
place	-10.7959
▁refer	-10.7973
▁tax	-10.7982
▁memorab	-10.7985
▁men	-10.7985
▁ko	-10.8004
▁pre	-10.8009
lu	-10.8057
▁decid	-10.8058
oz	-10.806
motel	-10.807
▁pure	-10.8076
▁shr	-10.8077
▁gra	-10.8084
▁exist	-10.8096
▁emer	-10.8098
▁vacuum	-10.8102
▁chimichanga	-10.8103
▁alternative	-10.8103
▁depend	-10.811
▁minim	-10.8119
▁sugar	-10.8198
▁program	-10.8198
▁explanation	-10.8199
▁consisten	-10.8229
ni	-10.8233
▁payment	-10.8247
zza	-10.8267
▁saving	-10.8268
▁mountain	-10.8296
▁dumpling	-10.8296
▁tree	-10.8303
▁among	-10.8308
▁rose	-10.8314
▁invent	-10.8326
of	-10.8349
▁rat	-10.8359
ka	-10.837
▁cole	-10.8387
▁fluff	-10.8393
▁breath	-10.8393
▁neighbor	-10.8394
▁fountain	-10.8394
hop	-10.8418
▁master	-10.8418
▁fille	-10.8419
▁trou	-10.8419
▁shell	-10.8423
▁soo	-10.8426
▁dozen	-10.8433
▁schedul	-10.8439
▁jo	-10.8453
ana	-10.8467
▁napkin	-10.8492
▁strike	-10.8492
▁address	-10.8493
▁cheesesteak	-10.8495
▁rob	-10.8498
▁peace	-10.8505
ft	-10.8517
▁dude	-10.8524
▁martini	-10.8558
raz	-10.8573
▁rough	-10.8575
▁angel	-10.8577
▁knot	-10.859
▁tattoo	-10.8592
▁unimpress	-10.8596
▁heav	-10.8628
▁cap	-10.8638
▁lock	-10.8638
ves	-10.8642
bo	-10.865
▁improve	-10.8659
▁report	-10.8695
▁magic	-10.8697
son	-10.8716
ink	-10.8718
▁accommodate	-10.8747
▁por	-10.8761
possibl	-10.8764
▁custom	-10.8765
▁suite	-10.8768
▁chees	-10.8775
▁round	-10.8777
▁nois	-10.8793
▁collection	-10.8798
▁coworker	-10.8799
afel	-10.8806
mongo	-10.8806
▁pupp	-10.8807
▁savor	-10.8807
▁definat	-10.8808
hap	-10.8811
dget	-10.8822
na	-10.8822
▁scam	-10.8828
▁advise	-10.8831
▁starter	-10.8842
▁suppl	-10.8843
▁slider	-10.8849
▁reviewer	-10.885
▁cu	-10.8855
▁degree	-10.8899
▁separate	-10.8899
▁bi	-10.89
▁carrot	-10.8901
iff	-10.8908
▁appeti	-10.8914
board	-10.8915
▁comp	-10.8935
▁engag	-10.8969
illa	-10.897
helpful	-10.8972
▁grow	-10.8988
▁jer	-10.8992
▁organi	-10.8998
▁ques	-10.9032
▁char	-10.9054
▁mini	-10.907
stance	-10.9086
▁vi	-10.9099
▁walgreen	-10.9108
▁easter	-10.9121
ational	-10.9126
lic	-10.9148
reek	-10.9152
▁vin	-10.916
▁rain	-10.9165
▁qui	-10.9177
hip	-10.9192
presso	-10.9208
ample	-10.9211
▁cigar	-10.9214
▁puff	-10.9214
▁fly	-10.9247
ia	-10.9254
▁create	-10.9261
▁dust	-10.9265
lower	-10.9282
▁alex	-10.929
our	-10.9299
▁sky	-10.9312
▁success	-10.9322
▁eyebrow	-10.9322
▁facial	-10.9323
▁estimate	-10.9324
▁hangout	-10.9333
▁grit	-10.934
▁inconvenien	-10.934
▁sal	-10.9389
▁stal	-10.9398
▁texa	-10.9411
▁brows	-10.9415
▁dep	-10.9421
▁irritat	-10.943
▁account	-10.9431
▁industr	-10.9431
▁won	-10.9436
▁wom	-10.9443
▁trail	-10.9446
itness	-10.9451
▁trade	-10.9452
amb	-10.9453
gue	-10.9466
ons	-10.9469
▁ar	-10.949
▁diet	-10.9508
if	-10.9526
▁mild	-10.953
ix	-10.9533
▁alcohol	-10.954
▁z	-10.9549
ley	-10.9557
▁dj	-10.9568
▁shut	-10.957
gen	-10.9576
▁liqu	-10.9588
rizo	-10.96
▁assistant	-10.9602
▁vale	-10.9616
▁drunk	-10.9652
▁select	-10.9665
ver	-10.9671
▁pip	-10.9671
stick	-10.9672
ab	-10.9677
▁seasonal	-10.9677
▁ray	-10.9682
▁appeal	-10.9683
was	-10.9694
▁cin	-10.9698
sy	-10.9718
ady	-10.9723
▁damage	-10.9764
▁headache	-10.9764
▁doughnut	-10.9764
▁tailor	-10.9765
▁performance	-10.9765
▁bargain	-10.9767
▁legit	-10.9775
▁salesm	-10.9784
▁dipp	-10.9806
▁referr	-10.9808
▁gal	-10.982
▁eh	-10.9827
▁blame	-10.9852
▁cho	-10.9864
▁feature	-10.9875
▁procedure	-10.9878
▁require	-10.9878
▁pecan	-10.9878
▁crepe	-10.9878
▁drag	-10.9882
▁screen	-10.9885
▁lesson	-10.9903
▁scream	-10.9903
▁zu	-10.9903
▁merc	-10.9913
▁peak	-10.9944
honest	-10.9961
▁ri	-10.9964
▁opt	-10.998
▁cart	-10.9988
▁scramble	-10.9992
▁attendant	-10.9993
▁outlet	-11.0017
edibl	-11.0018
corn	-11.0027
▁cur	-11.0034
▁eater	-11.0046
satisfie	-11.0054
rget	-11.006
▁celebrate	-11.0075
▁remain	-11.0109
ball	-11.0134
ial	-11.0145
ntil	-11.0157
▁pret	-11.0158
▁visitor	-11.0162
oman	-11.0181
za	-11.0194
▁appropriate	-11.0212
yard	-11.0218
get	-11.0221
▁video	-11.0225
▁mattress	-11.0226
▁blueberr	-11.0226
▁power	-11.0232
▁joy	-11.0253
▁handl	-11.0258
nny	-11.0266
eep	-11.0292
new	-11.0295
▁dro	-11.0295
▁barbe	-11.0324
int	-11.0347
eith	-11.0347
▁trend	-11.0358
stone	-11.0359
▁painful	-11.0361
▁compl	-11.0368
▁twist	-11.0377
ue	-11.038
urch	-11.0387
da	-11.0395
▁voice	-11.0396
▁depart	-11.0401
▁operat	-11.0402
▁utter	-11.0429
▁sor	-11.0436
af	-11.044
own	-11.0452
▁computer	-11.0466
▁artichoke	-11.0466
▁confiden	-11.0466
▁suns	-11.0467
▁improvement	-11.0472
nch	-11.0473
▁tom	-11.0473
▁leak	-11.0491
giv	-11.0527
▁chatt	-11.0528
▁cause	-11.0541
▁pine	-11.0546
yo	-11.056
dio	-11.0562
uke	-11.0565
ure	-11.0577
▁lou	-11.0578
▁clerk	-11.0587
▁similar	-11.0587
▁walnut	-11.0588
▁crack	-11.0597
▁appall	-11.0616
▁fianc	-11.0619
▁mass	-11.0621
▁advertis	-11.0638
ami	-11.0646
▁operate	-11.0659
ism	-11.0665
▁che	-11.0679
ha	-11.0682
ught	-11.0688
▁manag	-11.0693
▁grat	-11.0699
▁reception	-11.071
▁character	-11.0711
▁milkshake	-11.0711
▁tremendous	-11.0711
▁je	-11.0726
tual	-11.0756
▁kn	-11.0767
▁memori	-11.077
oba	-11.0778
▁tin	-11.0784
tball	-11.0786
ria	-11.0788
worker	-11.0789
▁mayo	-11.0796
▁pup	-11.0807
▁responsi	-11.0833
▁block	-11.084
▁wood	-11.0842
▁lik	-11.0846
▁stunn	-11.0849
▁instant	-11.0851
▁ug	-11.0851
▁insist	-11.0854
▁indoor	-11.0857
▁entr	-11.0861
▁assume	-11.0869
apple	-11.0873
▁toward	-11.0882
room	-11.0885
▁scratch	-11.0891
▁repeated	-11.0897
▁gener	-11.0901
▁rid	-11.0905
vin	-11.0933
▁fiance	-11.0955
hwat	-11.0959
▁individual	-11.0963
▁hygienist	-11.0963
▁adventur	-11.0965
▁sincere	-11.0971
ot	-11.0972
heck	-11.1005
▁tag	-11.1022
ranch	-11.1039
▁stone	-11.1054
pping	-11.1056
▁age	-11.1071
▁tho	-11.1072
wi	-11.1078
sur	-11.1079
▁kabob	-11.109
▁initial	-11.1091
▁croissant	-11.1091
▁inspection	-11.1092
▁ab	-11.1102
▁blend	-11.1106
hila	-11.111
▁sho	-11.1128
eek	-11.1134
▁fo	-11.1134
▁dang	-11.1134
▁appreciat	-11.114
ob	-11.1152
sala	-11.1156
▁remove	-11.1164
dge	-11.1178
▁daniel	-11.122
▁reward	-11.1228
▁afterward	-11.1238
▁whe	-11.1246
nda	-11.1292
▁budd	-11.1299
▁cub	-11.1304
▁eric	-11.1313
▁accident	-11.1353
▁elegan	-11.1353
▁burro	-11.1359
met	-11.136
▁humor	-11.1363
▁hurr	-11.1367
▁chan	-11.1372
▁grabb	-11.1377
dler	-11.1379
▁pat	-11.1387
▁nick	-11.14
▁pest	-11.1417
▁decoration	-11.1418
▁cram	-11.1438
▁bro	-11.1453
▁replac	-11.1483
▁recipe	-11.1485
▁celebration	-11.1488
▁delay	-11.1492
▁apologi	-11.1498
▁yuck	-11.1503
love	-11.1507
▁horse	-11.151
teria	-11.1513
▁updat	-11.1515
▁impressi	-11.1528
ba	-11.153
▁calm	-11.154
▁appetiz	-11.1548
tch	-11.155
▁peach	-11.1552
▁freakin	-11.1557
▁fi	-11.1561
cu	-11.1567
▁sang	-11.1584
ressing	-11.1615
▁relleno	-11.162
▁cucumber	-11.1621
▁calorie	-11.1621
▁cigarette	-11.1621
▁postino	-11.1621
▁cupcake	-11.1622
fron	-11.1637
▁jenn	-11.1641
▁matt	-11.1651
ept	-11.1657
▁sash	-11.1663
▁bubble	-11.1663
grit	-11.1667
▁layo	-11.1672
▁mr	-11.1672
▁ny	-11.1675
ning	-11.168
tail	-11.1708
▁ove	-11.1731
▁jalapeo	-11.1758
▁arcad	-11.1766
▁direction	-11.1766
▁lime	-11.1769
▁fixe	-11.1779
▁carni	-11.178
▁stepp	-11.1802
▁poi	-11.1808
▁fam	-11.1811
!	-11.1812
▁severe	-11.1813
▁comic	-11.1819
gas	-11.1823
▁fl	-11.1825
▁cheer	-11.1825
▁shipp	-11.1839
▁diamond	-11.1896
▁outrageous	-11.1897
▁tourist	-11.1898
▁random	-11.1899
lot	-11.1903
▁breast	-11.1915
▁cre	-11.1916
▁jun	-11.1917
▁surrounding	-11.192
▁draw	-11.1921
▁border	-11.1933
▁steal	-11.1933
soning	-11.1942
▁america	-11.1948
▁papa	-11.196
sta	-11.1971
▁root	-11.1982
ctic	-11.1982
non	-11.1995
▁horri	-11.2017
▁lam	-11.2021
▁skimp	-11.2036
▁rangoon	-11.2037
▁cherr	-11.2046
▁cobble	-11.2054
down	-11.2076
▁bird	-11.2091
▁amb	-11.21
▁y	-11.2112
▁mari	-11.2149
▁forgett	-11.2159
▁wrapp	-11.2163
▁rack	-11.2168
▁herb	-11.217
▁hundred	-11.218
▁destination	-11.218
▁operation	-11.2183
ale	-11.2184
ions	-11.2191
some	-11.2193
▁unbea	-11.2195
▁spoon	-11.2205
ery	-11.2211
▁hip	-11.2213
▁advan	-11.2229
▁bra	-11.2242
bac	-11.2256
▁hills	-11.2268
▁fla	-11.2309
▁sha	-11.2316
▁friendlie	-11.2317
▁expir	-11.2324
▁oregano	-11.2325
▁redeem	-11.2326
▁extraordinar	-11.2326
▁decade	-11.2326
▁tra	-11.2328
▁guide	-11.2332
ound	-11.2333
▁unexpected	-11.2347
▁assort	-11.235
iness	-11.2362
▁jas	-11.2376
▁suppose	-11.2378
▁reu	-11.2387
▁pr	-11.2387
▁rehea	-11.2393
▁amaz	-11.2398
▁ben	-11.2404
▁medica	-11.2412
ja	-11.2416
ved	-11.2416
▁hil	-11.2424
otic	-11.2445
ical	-11.2449
▁ge	-11.2455
▁sundae	-11.2469
▁vinegar	-11.2472
▁land	-11.2472
▁moderate	-11.2477
▁raise	-11.248
▁satisfact	-11.2488
field	-11.2494
anie	-11.2511
▁tub	-11.2514
real	-11.2517
▁admit	-11.2518
came	-11.252
▁thoughtful	-11.2535
eeth	-11.2547
▁bomb	-11.2548
▁rule	-11.2549
ler	-11.2555
▁resident	-11.2586
rk	-11.2591
▁farm	-11.2593
con	-11.26
▁chops	-11.2616
▁cannoli	-11.2621
▁condiment	-11.2621
▁elevator	-11.2622
▁cultur	-11.2629
pic	-11.265
▁franc	-11.2651
▁nello	-11.2653
▁vari	-11.2654
▁mig	-11.2666
▁bf	-11.2667
amon	-11.2669
▁cry	-11.2688
▁necessar	-11.2711
▁row	-11.2719
▁laundr	-11.2772
▁valentine	-11.2773
▁decline	-11.2773
▁resolve	-11.2773
▁flour	-11.2776
▁lab	-11.2783
▁luv	-11.2784
▁overlook	-11.2794
▁sanita	-11.2805
▁sham	-11.2817
▁roach	-11.282
▁ob	-11.2833
▁sak	-11.2834
▁steph	-11.2848
▁flori	-11.2861
ems	-11.2862
ground	-11.2864
▁tol	-11.2872
▁horrifi	-11.2877
cha	-11.2884
▁fil	-11.2895
io	-11.2909
libert	-11.292
▁acrylic	-11.2926
▁squeeze	-11.2926
▁jalapeno	-11.2926
▁carolina	-11.2926
▁exaggerati	-11.2927
▁tostada	-11.2927
▁exception	-11.293
▁horr	-11.2938
▁hotels	-11.2946
▁patroniz	-11.2956
▁stole	-11.2966
necessar	-11.2969
lish	-11.297
gan	-11.2972
otto	-11.2975
▁occasional	-11.2976
que	-11.2979
▁contr	-11.2979
ns	-11.2981
▁almond	-11.2985
▁lead	-11.2988
▁chat	-11.3002
▁comple	-11.3002
▁sink	-11.3036
▁historic	-11.3036
▁cha	-11.304
▁cracker	-11.3052
▁jar	-11.3057
▁flow	-11.3058
cept	-11.3072
ling	-11.3081
▁effect	-11.3082
▁unusual	-11.3085
▁junk	-11.3086
▁contract	-11.3087
▁straw	-11.3087
▁roof	-11.3101
▁companion	-11.3105
irlo	-11.3117
▁bigg	-11.3135
▁brewer	-11.3139
ger	-11.315
rel	-11.3155
▁aspect	-11.3162
▁repl	-11.3162
▁study	-11.3173
lay	-11.3176
vis	-11.3177
▁pros	-11.3181
▁audi	-11.3184
▁doc	-11.3188
▁eag	-11.3193
▁tank	-11.3196
▁essential	-11.3202
▁apri	-11.322
▁reputa	-11.322
▁cas	-11.3235
▁lane	-11.3237
▁qua	-11.3237
▁opportunit	-11.3241
▁patt	-11.3246
oul	-11.3246
▁renovation	-11.3247
▁according	-11.3249
▁advance	-11.3255
▁jessi	-11.3264
▁law	-11.3267
▁island	-11.3281
▁convenien	-11.3284
▁michel	-11.3285
▁uni	-11.3288
▁villa	-11.3291
▁desir	-11.3294
▁sl	-11.3295
▁adam	-11.3295
thi	-11.3308
ig	-11.3322
▁goo	-11.3325
▁carrie	-11.3329
▁agent	-11.3336
▁ki	-11.3342
▁ru	-11.3342
▁wan	-11.3344
ben	-11.3362
▁bang	-11.3363
▁spo	-11.3365
ater	-11.3366
great	-11.3368
▁dresse	-11.337
urt	-11.3385
▁cow	-11.3397
▁desperate	-11.3403
▁chiropract	-11.3403
▁appliance	-11.3403
▁royal	-11.3404
male	-11.3404
▁practical	-11.3407
▁chai	-11.3408
eated	-11.341
▁incorrect	-11.3412
▁dig	-11.3414
ub	-11.3416
▁danc	-11.342
deal	-11.3437
▁compete	-11.3444
▁weekday	-11.3464
▁solution	-11.3502
▁fight	-11.3505
consi	-11.3515
kf	-11.3522
ifi	-11.3541
dar	-11.3545
▁gun	-11.3552
▁ram	-11.3556
mbo	-11.3557
▁becom	-11.3561
▁gu	-11.3566
ud	-11.3582
table	-11.3609
▁soak	-11.3614
▁shoot	-11.3615
▁barbers	-11.3615
key	-11.3633
▁shave	-11.3644
▁layer	-11.3653
▁fond	-11.3656
▁skillet	-11.3661
via	-11.3662
▁wis	-11.3672
▁maria	-11.3696
▁remarkabl	-11.3713
wall	-11.3727
▁error	-11.3732
▁jamba	-11.3733
▁gracious	-11.3734
▁premi	-11.3736
dian	-11.3741
▁hush	-11.3746
▁reach	-11.3752
▁inte	-11.3753
▁occu	-11.3772
▁ethic	-11.3794
▁link	-11.3802
▁minu	-11.383
dont	-11.3833
▁advertise	-11.3833
▁pit	-11.3835
▁tir	-11.3849
▁couch	-11.3859
ming	-11.3863
iz	-11.3879
ace	-11.3894
▁mimosa	-11.3902
▁demand	-11.3902
▁josh	-11.3906
▁chimi	-11.3914
▁diagnos	-11.3923
ze	-11.3927
ise	-11.3928
▁education	-11.3929
▁continu	-11.393
▁human	-11.3953
▁edge	-11.3972
▁torn	-11.3977
ience	-11.398
hed	-11.4
ounge	-11.4
▁boxe	-11.4005
▁pep	-11.4016
otle	-11.4028
ilit	-11.4034
▁swim	-11.4038
▁flag	-11.4067
ls	-11.4073
▁focus	-11.4074
▁approx	-11.4074
▁max	-11.4075
▁activit	-11.4075
▁transfer	-11.4075
▁wheel	-11.4084
ference	-11.4084
▁bobb	-11.4088
nce	-11.4097
▁coat	-11.4101
can	-11.4104
▁jean	-11.4113
▁behav	-11.4122
▁improv	-11.4125
use	-11.4127
▁term	-11.4131
▁dread	-11.4141
tro	-11.4143
▁addict	-11.4147
▁octo	-11.4148
hood	-11.4151
▁wil	-11.4158
▁burg	-11.4163
zen	-11.4173
▁wipe	-11.4175
▁dinn	-11.418
cate	-11.4186
▁marri	-11.4221
▁yard	-11.4246
▁domino	-11.425
▁therapist	-11.425
▁disappear	-11.4251
▁fabric	-11.4251
▁snob	-11.4253
▁waite	-11.4263
▁dealer	-11.4265
▁concert	-11.4275
▁mach	-11.4281
▁gear	-11.4286
▁introduce	-11.4286
mber	-11.4293
action	-11.4293
▁tang	-11.4307
▁model	-11.4308
▁pools	-11.4314
▁pace	-11.4322
▁worrie	-11.4331
imate	-11.4342
▁slim	-11.4348
posit	-11.435
▁tr	-11.4355
aca	-11.4371
▁brownie	-11.4381
▁accomodat	-11.44
▁jeweler	-11.4404
handi	-11.4407
▁press	-11.441
▁pregnan	-11.4428
▁ceiling	-11.4428
▁pillow	-11.4428
▁significant	-11.4429
▁stumble	-11.4431
▁deni	-11.4433
▁partner	-11.4434
▁beaut	-11.4435
alley	-11.4439
▁track	-11.4442
▁container	-11.4451
▁expand	-11.4462
nding	-11.4467
▁biz	-11.447
fred	-11.4471
▁spr	-11.4472
oft	-11.4478
▁mmm	-11.4479
▁perform	-11.4494
▁laur	-11.4496
▁brid	-11.4497
▁ea	-11.4528
▁chand	-11.4535
rite	-11.4563
▁enthusiast	-11.4574
geous	-11.4575
▁grandm	-11.4579
gant	-11.4599
▁grant	-11.4601
▁bru	-11.4602
ordinar	-11.4602
burg	-11.4605
▁breads	-11.4605
▁inde	-11.4607
dium	-11.4609
▁nugget	-11.461
▁certifi	-11.461
▁hallway	-11.4611
▁remote	-11.4611
oo	-11.4613
▁harr	-11.4616
ssion	-11.4624
olog	-11.4628
prise	-11.463
▁advi	-11.466
▁compan	-11.4661
▁sara	-11.468
▁liar	-11.4702
umb	-11.4713
▁varie	-11.4714
▁lowes	-11.4726
aster	-11.4751
▁alon	-11.4751
nish	-11.4761
race	-11.477
etent	-11.4776
▁curd	-11.4787
iny	-11.4801
▁overcharge	-11.4801
qui	-11.4801
▁capit	-11.481
▁fritter	-11.4815
▁weight	-11.4815
▁soooooo	-11.4817
lin	-11.4822
▁challeng	-11.483
gate	-11.4832
▁oak	-11.4836
▁pound	-11.4853
▁overwhelming	-11.4854
cent	-11.4854
▁compet	-11.4866
▁nav	-11.4871
▁eve	-11.4871
▁taxi	-11.4872
eri	-11.49
▁med	-11.4921
inspir	-11.4941
▁assure	-11.4949
ears	-11.4949
▁social	-11.4952
▁robert	-11.4961
abi	-11.4964
▁mold	-11.4978
▁knock	-11.4984
▁rand	-11.4986
▁version	-11.4992
urd	-11.4997
▁metro	-11.5012
▁unpr	-11.5015
▁cop	-11.5024
▁gum	-11.5024
bow	-11.5025
▁blond	-11.5028
▁steer	-11.5034
▁um	-11.5042
▁spl	-11.5052
limp	-11.5057
▁scru	-11.5068
▁starte	-11.5072
▁gras	-11.5094
pedi	-11.5095
▁scar	-11.5103
▁indi	-11.5111
mic	-11.5123
▁apologiz	-11.5169
▁renovat	-11.517
▁bless	-11.5171
▁rubio	-11.5176
▁hangover	-11.5179
ffic	-11.518
▁arro	-11.5183
▁mus	-11.5189
▁collard	-11.5192
ele	-11.5208
▁offen	-11.5212
▁urban	-11.5217
river	-11.5227
▁tray	-11.5231
▁canne	-11.5242
▁abs	-11.5247
▁fift	-11.5264
mark	-11.5267
▁bath	-11.5273
gi	-11.5297
▁organ	-11.5313
▁sir	-11.5315
▁field	-11.5323
▁ang	-11.535
▁assum	-11.5357
appropriate	-11.5371
▁europe	-11.5372
▁spirit	-11.5372
▁physician	-11.5372
▁sur	-11.5376
▁juke	-11.5376
▁symp	-11.5385
▁shan	-11.5402
▁dedicat	-11.5403
gie	-11.5405
burger	-11.5408
▁discuss	-11.5411
mpt	-11.5428
▁esca	-11.5429
▁oppos	-11.5439
hru	-11.5458
▁info	-11.5461
▁frustrati	-11.5464
top	-11.5478
▁sheet	-11.5486
▁provider	-11.549
care	-11.5493
iance	-11.5502
▁nut	-11.5522
attentive	-11.5524
▁dryer	-11.5562
▁join	-11.5566
▁gor	-11.557
▁mirror	-11.5572
▁exchange	-11.5572
▁description	-11.5572
▁hotdog	-11.5574
▁judge	-11.5574
▁sandwhich	-11.5578
endous	-11.5589
▁anti	-11.5593
▁shaw	-11.5617
vine	-11.5622
▁lie	-11.5628
inste	-11.5641
ign	-11.5645
▁tee	-11.5649
▁warne	-11.5655
▁page	-11.5661
native	-11.5664
▁supp	-11.5667
tas	-11.5676
▁tai	-11.5683
interest	-11.5691
▁teet	-11.5694
▁hospita	-11.5708
ction	-11.5725
com	-11.5744
▁bur	-11.5747
▁medic	-11.5775
▁matthew	-11.5776
▁pant	-11.5778
▁ash	-11.5792
▁medication	-11.5793
inna	-11.5802
▁adv	-11.5805
▁attracti	-11.5813
▁patien	-11.5821
▁compensat	-11.5823
▁dec	-11.5824
▁den	-11.5824
rea	-11.5825
▁lover	-11.583
ir	-11.5831
strict	-11.5839
lace	-11.5856
▁veg	-11.5872
▁aisle	-11.5893
dough	-11.5921
▁bumme	-11.5933
▁advis	-11.5936
▁compani	-11.5943
▁challenge	-11.5946
▁ad	-11.5981
▁thrift	-11.5984
▁blizzard	-11.5984
▁interaction	-11.5992
▁responsib	-11.6026
eno	-11.6027
▁chick	-11.6033
did	-11.6033
▁somewh	-11.6037
risk	-11.6053
app	-11.6057
▁ban	-11.6067
stitution	-11.6069
▁defi	-11.6073
▁om	-11.6077
▁pile	-11.6084
▁sticker	-11.6085
▁juli	-11.6085
acky	-11.6093
▁brun	-11.6094
ulta	-11.6102
lav	-11.6103
▁hoot	-11.6106
gerat	-11.6113
▁marg	-11.6116
service	-11.6121
ang	-11.6135
▁johns	-11.615
orge	-11.617
lv	-11.617
▁introduc	-11.6172
▁creat	-11.6175
▁radi	-11.6186
▁nostalgi	-11.6197
▁independent	-11.6197
▁session	-11.6222
▁explor	-11.6225
▁lil	-11.6256
▁ci	-11.6256
wing	-11.6258
equa	-11.6261
eak	-11.627
▁grey	-11.6278
keep	-11.6286
▁shel	-11.6287
hen	-11.6295
▁fortunate	-11.6306
▁understate	-11.6319
▁brat	-11.6322
star	-11.6324
mw	-11.6326
ime	-11.6332
▁jose	-11.6334
ium	-11.6344
▁coast	-11.6345
but	-11.6349
urant	-11.6357
ember	-11.6395
▁mixe	-11.641
▁macayo	-11.6414
▁bouquet	-11.6414
▁uncle	-11.6414
▁landscap	-11.6414
▁connect	-11.642
▁macaroon	-11.642
▁sw	-11.6424
arm	-11.6432
▁hr	-11.6443
▁cact	-11.6456
▁stack	-11.646
lus	-11.6469
▁player	-11.6486
▁fave	-11.6489
▁moo	-11.6494
▁designer	-11.6525
▁gambl	-11.6531
▁chil	-11.6533
heart	-11.6543
away	-11.6551
▁rub	-11.6557
▁poke	-11.6575
▁au	-11.6581
eff	-11.6607
▁rang	-11.6614
▁jump	-11.6614
▁project	-11.6636
▁immaculate	-11.6637
▁photograph	-11.6637
▁eggroll	-11.6639
▁raci	-11.664
▁wander	-11.6643
▁antique	-11.6647
▁suffer	-11.6649
▁cri	-11.6652
▁topp	-11.6657
▁official	-11.6658
▁extend	-11.666
▁definit	-11.6661
ike	-11.6666
▁installer	-11.6678
▁woo	-11.6706
▁camera	-11.6712
▁financ	-11.6714
▁wind	-11.6714
▁lite	-11.6727
▁fixing	-11.6729
▁haha	-11.6742
free	-11.6748
ragu	-11.6756
med	-11.6765
nstruction	-11.6765
▁communicate	-11.6765
▁button	-11.6775
▁happi	-11.6784
ease	-11.6787
op	-11.6788
▁execut	-11.6791
▁whip	-11.6828
mesa	-11.683
riott	-11.6837
▁entre	-11.6838
port	-11.6841
they	-11.6842
▁tasteful	-11.6843
▁disg	-11.6845
existen	-11.6858
ere	-11.6858
▁kohl	-11.6862
▁victor	-11.6863
▁vendor	-11.6863
▁reschedule	-11.6864
▁legend	-11.6867
▁lamp	-11.6875
anda	-11.6882
quar	-11.6889
phone	-11.6917
uit	-11.6917
manda	-11.6923
ston	-11.6923
cine	-11.6945
▁martin	-11.6948
▁argue	-11.6949
▁former	-11.6955
sense	-11.6958
▁san	-11.6963
ach	-11.6977
▁remov	-11.6978
come	-11.6994
point	-11.6996
now	-11.7006
▁male	-11.7006
teful	-11.7028
▁locate	-11.7054
▁sucke	-11.7056
person	-11.7078
▁linguin	-11.7096
▁consistant	-11.7096
▁hipster	-11.7097
ngle	-11.7098
▁caramel	-11.71
▁complement	-11.7102
▁porter	-11.7126
▁alo	-11.7135
▁cran	-11.7141
▁deb	-11.7153
▁king	-11.7163
good	-11.7164
▁nic	-11.7182
flower	-11.7188
▁adore	-11.7196
▁jon	-11.7198
▁ummm	-11.721
ush	-11.7217
izz	-11.7245
▁overwhelm	-11.726
▁dancer	-11.7277
rate	-11.7278
shi	-11.7313
▁build	-11.7319
▁sweat	-11.7324
lor	-11.7332
▁eno	-11.7332
▁samosa	-11.7334
ray	-11.7334
▁penguin	-11.7334
▁benefit	-11.7334
▁convince	-11.7334
▁length	-11.7334
▁consulta	-11.7334
▁bloom	-11.7345
ppl	-11.7346
▁purse	-11.7349
▁bucket	-11.7361
▁roberto	-11.7362
▁reek	-11.7379
▁bull	-11.7391
▁freez	-11.7395
ell	-11.7396
▁trad	-11.7402
appetiz	-11.7407
volv	-11.7421
der	-11.7432
zz	-11.7436
udo	-11.7448
ff	-11.7451
▁conc	-11.7453
▁mel	-11.7455
ps	-11.7468
ear	-11.748
▁ag	-11.7481
▁tolera	-11.7481
ement	-11.7484
▁attac	-11.7485
▁action	-11.7505
▁tile	-11.7522
▁string	-11.7541
cuz	-11.7544
east	-11.756
oursel	-11.7562
▁promis	-11.7574
▁recognize	-11.7578
▁devil	-11.758
▁kal	-11.7587
▁piercing	-11.7593
▁russ	-11.7594
▁tend	-11.7624
▁inspect	-11.7644
▁galler	-11.7646
▁mmmm	-11.7652
pi	-11.7653
▁lap	-11.7657
iculous	-11.7662
ential	-11.767
▁wedge	-11.7674
different	-11.7675
▁buil	-11.7679
▁rotati	-11.7689
you	-11.769
▁ass	-11.7697
▁chap	-11.7708
sion	-11.7708
uxe	-11.7715
▁iron	-11.7735
bra	-11.7764
grade	-11.7765
▁carr	-11.777
▁smoker	-11.7774
▁anyt	-11.7782
bb	-11.7785
sign	-11.7795
boy	-11.7797
▁flak	-11.78
▁underst	-11.7801
os	-11.782
▁cons	-11.7821
style	-11.7825
▁purp	-11.7826
▁fleming	-11.7828
▁smith	-11.7828
▁crystal	-11.7828
▁guard	-11.7833
bit	-11.7838
▁fir	-11.7847
▁partial	-11.7852
then	-11.7859
▁roma	-11.7873
▁jan	-11.7877
▁rick	-11.788
tensi	-11.7915
▁aggr	-11.7916
▁passe	-11.7922
pasto	-11.7933
wage	-11.7936
▁flo	-11.7941
ilia	-11.7943
▁bul	-11.7963
▁parti	-11.7968
▁rout	-11.799
▁torta	-11.7996
▁settle	-11.7999
▁ne	-11.8002
▁showe	-11.8006
gage	-11.8022
ngs	-11.8043
anna	-11.8048
kyo	-11.805
astic	-11.8054
cal	-11.8068
▁sc	-11.8074
ches	-11.808
▁volume	-11.8083
▁quarter	-11.8084
▁research	-11.8084
▁accompani	-11.8085
▁pitcher	-11.8087
▁substitute	-11.8092
▁christin	-11.8092
▁hel	-11.8094
▁eng	-11.8096
▁quali	-11.8108
ester	-11.8113
▁sto	-11.8119
▁holly	-11.8139
ative	-11.8147
lk	-11.8151
▁crook	-11.8156
▁stud	-11.8168
hold	-11.8173
▁sex	-11.8174
rant	-11.8182
▁admi	-11.8205
les	-11.8227
uel	-11.8235
▁addicti	-11.8259
▁teach	-11.8274
▁dept	-11.8274
▁umm	-11.8279
lean	-11.8281
▁sel	-11.8289
▁nig	-11.8295
ila	-11.8296
per	-11.8297
▁wok	-11.8297
ini	-11.8303
ettuc	-11.831
▁boo	-11.8311
ift	-11.8338
▁scoop	-11.8346
▁mojito	-11.8346
▁acoustic	-11.8347
▁toddler	-11.8347
▁grape	-11.8347
▁spray	-11.8349
▁mex	-11.8352
▁tenant	-11.8352
▁filter	-11.8377
▁festiv	-11.8378
▁q	-11.8382
▁mira	-11.8394
▁aj	-11.8396
▁tune	-11.8404
ow	-11.8417
dict	-11.8429
▁arrow	-11.8429
limit	-11.8438
▁trim	-11.8442
ore	-11.845
▁wei	-11.8465
zone	-11.8469
row	-11.847
▁spin	-11.8472
▁int	-11.8475
▁hmm	-11.8487
▁brie	-11.8494
▁carl	-11.8519
▁habi	-11.8522
▁presen	-11.8531
▁orde	-11.8533
gle	-11.8535
brown	-11.8535
ead	-11.8536
▁pear	-11.8542
onald	-11.8546
▁slide	-11.856
lead	-11.8567
▁mmmmm	-11.8573
▁tail	-11.8579
▁autom	-11.8579
▁hall	-11.8582
antic	-11.8587
▁trick	-11.8599
ellow	-11.8602
▁experienc	-11.8602
▁linds	-11.8604
▁pocket	-11.8617
▁material	-11.8617
▁commercial	-11.8617
▁praise	-11.8618
wear	-11.8618
▁adjustment	-11.8621
▁palm	-11.8622
▁automatic	-11.8626
▁doggie	-11.8638
patient	-11.864
▁til	-11.8652
▁nev	-11.8667
ned	-11.868
▁assistan	-11.8689
▁div	-11.8699
▁cheat	-11.8703
▁fortun	-11.8715
▁reserve	-11.8721
▁shine	-11.8724
▁clo	-11.8727
▁unwelcom	-11.8733
▁squi	-11.874
▁tipp	-11.8752
hut	-11.8753
▁news	-11.8753
▁curt	-11.8761
chi	-11.8761
sure	-11.8773
▁accommodati	-11.8774
▁tow	-11.8778
ental	-11.8786
nsur	-11.8788
rat	-11.8789
ina	-11.8789
▁vote	-11.8792
▁wid	-11.8796
rty	-11.881
nes	-11.8812
terior	-11.8813
▁considerat	-11.8814
norm	-11.8833
people	-11.8837
▁ene	-11.8842
vision	-11.8845
firm	-11.8855
empt	-11.8869
▁contin	-11.8882
▁increase	-11.8895
▁cousin	-11.8896
bi	-11.89
▁tint	-11.89
ero	-11.8903
▁definet	-11.8903
▁admitted	-11.8903
gno	-11.8921
▁inquire	-11.8921
▁lump	-11.8922
experience	-11.8926
lease	-11.8926
▁interact	-11.8926
ank	-11.8929
▁aspa	-11.8939
▁theat	-11.8948
▁port	-11.8968
▁representati	-11.897
▁cont	-11.8976
▁form	-11.8977
ollo	-11.8978
cotta	-11.8988
vic	-11.8999
nast	-11.902
cks	-11.9039
ici	-11.9052
▁connecti	-11.9055
▁inspir	-11.9063
▁pairing	-11.9071
iri	-11.9086
▁ric	-11.9093
ac	-11.9139
▁sampl	-11.9142
ti	-11.9151
ened	-11.9154
▁luxur	-11.9179
▁champa	-11.918
ize	-11.9182
▁lentil	-11.9184
▁sand	-11.9186
fore	-11.919
▁tur	-11.9191
▁asia	-11.9191
▁motor	-11.9196
▁gen	-11.9202
▁sudden	-11.9206
arma	-11.9217
inter	-11.9229
ox	-11.9247
▁executi	-11.9272
lose	-11.9275
iza	-11.9282
ong	-11.9296
owder	-11.9298
▁note	-11.93
▁tex	-11.9304
▁allerg	-11.9313
nel	-11.9317
bear	-11.9324
▁candle	-11.9328
▁vo	-11.9328
▁bride	-11.9349
▁gallo	-11.935
gne	-11.9353
urge	-11.9358
▁kimch	-11.9358
market	-11.9365
car	-11.9365
▁vince	-11.9368
adis	-11.9392
▁code	-11.941
▁award	-11.9442
will	-11.9453
gnific	-11.9467
▁supreme	-11.9474
▁thousand	-11.9475
cident	-11.9476
▁tann	-11.9479
▁obsess	-11.9484
▁chev	-11.9485
▁jacket	-11.9486
remarkabl	-11.9488
▁sprin	-11.9489
ans	-11.9489
bird	-11.9496
ota	-11.9497
▁drown	-11.95
▁foodie	-11.9502
oil	-11.9513
unge	-11.9514
▁cone	-11.9524
sanita	-11.9527
▁vir	-11.9533
▁mor	-11.9535
▁stylis	-11.9539
▁path	-11.9541
considerat	-11.9545
▁relie	-11.9545
ping	-11.9546
▁crav	-11.9554
restaurant	-11.9554
▁appoint	-11.9582
▁dart	-11.959
fyi	-11.9597
▁maid	-11.9641
under	-11.9658
gust	-11.9658
▁fre	-11.9658
ual	-11.967
▁lens	-11.9677
▁outs	-11.9692
▁techn	-11.9694
poo	-11.9696
rain	-11.9705
▁somet	-11.971
▁traveler	-11.9716
efficient	-11.9741
ross	-11.9741
▁veterinar	-11.9776
▁reflect	-11.9777
▁chemical	-11.9777
▁concession	-11.9777
▁gathering	-11.9778
▁colleague	-11.9778
▁electric	-11.9778
▁stat	-11.9778
▁import	-11.9781
▁competitor	-11.9784
ican	-11.9786
▁cashew	-11.9787
▁glaze	-11.9791
▁steel	-11.9792
▁doug	-11.9804
▁spinato	-11.981
lex	-11.9812
▁nak	-11.9813
▁referral	-11.9818
chu	-11.9821
mine	-11.9822
them	-11.9827
▁shoulder	-11.9843
▁appli	-11.985
era	-11.9852
una	-11.9855
prese	-11.9859
▁glen	-11.9862
ntro	-11.987
erran	-11.9872
▁specialist	-11.9872
▁peel	-11.9876
nation	-11.9878
▁engage	-11.988
mate	-11.9882
▁rotat	-11.9898
▁saute	-11.9899
max	-11.9908
▁conven	-11.9918
▁vol	-11.9929
▁trac	-11.9929
▁precis	-11.993
▁sonora	-11.9935
▁boat	-11.994
meal	-11.9959
mmed	-11.9966
▁meant	-11.9977
mi	-11.9981
school	-12.0001
radis	-12.0008
▁trainer	-12.0014
▁cod	-12.0015
un	-12.0025
terr	-12.0046
▁afr	-12.0056
store	-12.0057
▁encourage	-12.0059
▁existen	-12.0063
don	-12.0065
nders	-12.0072
▁ol	-12.0076
atch	-12.0085
▁teppan	-12.0089
▁slot	-12.0089
▁ultra	-12.0089
▁cockroach	-12.0089
rippe	-12.0104
▁jess	-12.0108
▁attraction	-12.0112
▁crawl	-12.0113
▁walle	-12.0118
ife	-12.0122
arn	-12.0134
▁invest	-12.0137
year	-12.014
▁file	-12.0196
▁kel	-12.0223
▁flor	-12.0234
vs	-12.0245
ep	-12.025
ack	-12.0274
mary	-12.0275
lect	-12.0277
liz	-12.0284
▁hesitat	-12.0294
▁argu	-12.0297
▁peas	-12.031
dia	-12.031
shop	-12.031
ratio	-12.0318
▁represent	-12.0327
▁inn	-12.0335
sap	-12.0339
ju	-12.0341
▁dissa	-12.0343
donna	-12.0344
▁float	-12.0344
than	-12.0345
▁maris	-12.0351
terra	-12.0353
▁educat	-12.0361
▁painting	-12.0383
box	-12.0388
▁bitch	-12.0392
enders	-12.04
▁pint	-12.0408
▁econom	-12.0411
▁overpower	-12.0413
▁powder	-12.0417
▁measure	-12.042
rrow	-12.0426
▁prote	-12.043
▁potent	-12.0443
▁coach	-12.0453
gh	-12.048
ars	-12.0487
arre	-12.0492
▁hunt	-12.0496
eria	-12.0499
cor	-12.0501
isco	-12.0502
gus	-12.0507
▁sas	-12.0518
sque	-12.0524
▁tab	-12.0529
irs	-12.0542
elli	-12.0564
lock	-12.0567
▁alas	-12.0579
▁ski	-12.059
▁fle	-12.0605
udge	-12.0606
▁letter	-12.0607
▁hat	-12.0612
▁celebrat	-12.0613
mily	-12.0619
cia	-12.0619
▁rec	-12.0624
pus	-12.0643
▁instruction	-12.0662
▁gri	-12.0665
▁heal	-12.0667
twe	-12.067
zi	-12.0671
▁brook	-12.0731
▁bal	-12.0732
▁jacob	-12.0744
▁distinct	-12.0745
▁magazine	-12.0745
▁abundan	-12.0745
▁pediatric	-12.0745
▁teenage	-12.0745
squir	-12.0747
hes	-12.0751
em	-12.0766
▁tas	-12.0773
▁robb	-12.0774
hara	-12.0779
▁visi	-12.0795
lenda	-12.0808
▁craw	-12.0811
▁esp	-12.0817
ys	-12.0823
sici	-12.0827
shirt	-12.083
mean	-12.0847
▁nurs	-12.085
▁substan	-12.085
▁malt	-12.0853
have	-12.086
ties	-12.0865
▁sav	-12.0879
▁cheeses	-12.0891
resident	-12.0892
▁solve	-12.0894
▁skipp	-12.0895
▁dam	-12.0901
cream	-12.0908
wn	-12.0921
urin	-12.0934
ette	-12.0935
▁shade	-12.0936
rail	-12.0948
smal	-12.0982
rall	-12.099
rapp	-12.1042
▁shocking	-12.1044
avi	-12.1067
stro	-12.1088
▁channel	-12.1089
▁tropica	-12.1089
▁physical	-12.1089
▁veteran	-12.1089
▁veterinarian	-12.1091
▁label	-12.1092
▁blanket	-12.1093
▁asshole	-12.1097
paper	-12.1103
▁loo	-12.1115
▁fork	-12.1119
spect	-12.1137
ado	-12.1142
▁arm	-12.115
▁sch	-12.1173
gr	-12.1183
▁film	-12.1192
lls	-12.1199
▁circu	-12.1209
▁bil	-12.1213
als	-12.1214
mous	-12.1228
▁marc	-12.1229
ho	-12.1232
park	-12.1242
▁buyer	-12.1251
ain	-12.1257
▁speaker	-12.1257
ius	-12.1269
▁slam	-12.1278
▁pane	-12.1282
pino	-12.1289
▁allergi	-12.1294
che	-12.1294
▁hid	-12.1295
▁fram	-12.1302
▁lim	-12.1308
with	-12.1314
▁tre	-12.1321
▁cautio	-12.1357
los	-12.1362
▁glo	-12.1362
▁brav	-12.1368
chase	-12.137
▁locke	-12.1387
▁interacti	-12.1394
pital	-12.1406
aunt	-12.1444
▁technique	-12.1447
▁permanent	-12.1447
▁volunteer	-12.1447
▁gam	-12.1451
▁drug	-12.1452
▁adjust	-12.1455
▁venture	-12.1478
▁lift	-12.148
▁encourag	-12.1482
▁rot	-12.1483
ki	-12.1493
▁cann	-12.1493
▁loan	-12.1502
amar	-12.1511
▁shopper	-12.1514
pt	-12.1515
▁scone	-12.1518
▁persona	-12.1524
▁bench	-12.1541
tf	-12.1543
mor	-12.1545
▁prince	-12.1546
tina	-12.1546
▁ship	-12.1557
issan	-12.1558
▁quint	-12.1572
▁ser	-12.158
▁scare	-12.1581
▁spe	-12.1583
▁mort	-12.1587
▁patti	-12.1591
▁munch	-12.1599
nline	-12.1603
▁jen	-12.1617
▁hor	-12.1621
▁epi	-12.1621
▁barb	-12.1625
▁primar	-12.164
ori	-12.1645
uzz	-12.1655
▁tam	-12.1665
▁production	-12.167
anyon	-12.1684
▁statu	-12.1693
ai	-12.1694
▁combine	-12.1697
▁crafts	-12.1703
missi	-12.1705
lift	-12.1707
tand	-12.1722
▁pipe	-12.1761
issue	-12.1766
▁plumb	-12.1771
▁quic	-12.1779
▁race	-12.1781
▁cobb	-12.1786
▁pino	-12.1789
▁reccom	-12.1791
▁pam	-12.1792
clean	-12.1794
rcha	-12.1801
▁bou	-12.1807
uilt	-12.1815
▁bear	-12.1816
▁cabinet	-12.1817
▁fluid	-12.1817
▁filiberto	-12.1817
▁electronic	-12.1817
▁customize	-12.1818
▁prop	-12.1819
▁dealers	-12.1832
▁renew	-12.1836
▁brush	-12.1838
▁accompany	-12.1843
mel	-12.1854
▁deserv	-12.1854
▁slip	-12.1871
▁neck	-12.1876
last	-12.1877
▁beg	-12.1889
aron	-12.1893
tali	-12.1894
abba	-12.1897
▁friendli	-12.1898
troy	-12.1899
▁conte	-12.1926
ith	-12.1928
▁justin	-12.193
▁fili	-12.1959
nc	-12.1977
gon	-12.1979
▁midw	-12.1993
erra	-12.1998
▁plac	-12.2001
rt	-12.2007
tiful	-12.2017
▁washing	-12.2022
▁teller	-12.2025
utto	-12.2035
▁tuc	-12.2035
▁jok	-12.2057
▁shi	-12.2061
ei	-12.2062
quit	-12.2072
raig	-12.2074
▁spac	-12.2085
▁seam	-12.2087
cher	-12.2097
▁hide	-12.2104
▁ron	-12.2104
▁dil	-12.212
ouble	-12.2121
▁whim	-12.2133
bru	-12.2142
rown	-12.2157
▁ken	-12.2166
▁apa	-12.2191
▁guitar	-12.2201
▁pierogi	-12.2201
▁television	-12.2201
▁passenger	-12.2201
▁spar	-12.2212
▁function	-12.2223
▁specialize	-12.2223
▁tik	-12.2224
▁musician	-12.2241
ones	-12.2241
sle	-12.2241
▁sooooooo	-12.2245
gold	-12.2274
personal	-12.2274
abili	-12.2287
▁tar	-12.2287
reasonabl	-12.2294
▁boar	-12.2302
ration	-12.2317
▁dun	-12.2322
▁belong	-12.2324
pa	-12.2335
▁nerv	-12.2339
aja	-12.234
ched	-12.2344
ek	-12.2359
▁anxi	-12.2365
▁farmer	-12.2365
▁mat	-12.2376
▁contain	-12.2379
ngua	-12.2379
sticker	-12.239
▁manda	-12.2404
▁pee	-12.2414
▁delis	-12.2415
ginal	-12.2417
▁sing	-12.2428
elve	-12.2431
gent	-12.2433
vi	-12.2435
▁skat	-12.2454
atro	-12.2472
ique	-12.2477
herita	-12.2495
▁friendl	-12.2533
ato	-12.255
nanc	-12.2555
smok	-12.2562
washer	-12.2567
▁sol	-12.258
eas	-12.2599
▁progress	-12.2601
water	-12.2602
war	-12.2602
▁william	-12.2602
▁tartar	-12.2611
▁buzz	-12.2613
▁broad	-12.2614
ggie	-12.2619
visit	-12.2621
▁emba	-12.2627
esta	-12.2647
iant	-12.2648
versi	-12.2653
▁terr	-12.2659
▁stre	-12.2659
▁ensur	-12.2663
▁terri	-12.2684
▁source	-12.2697
cordi	-12.2698
saka	-12.2701
venue	-12.2709
urban	-12.2726
ips	-12.2752
mb	-12.2764
▁lowe	-12.2764
ci	-12.2771
outs	-12.2789
▁servic	-12.2805
ip	-12.2811
ola	-12.2813
campi	-12.2813
ara	-12.2821
▁sear	-12.2838
▁kay	-12.2843
▁consum	-12.2857
▁brit	-12.2857
▁bagg	-12.2878
▁furnish	-12.2885
lleg	-12.2888
▁pizz	-12.2889
ense	-12.2915
▁rosa	-12.2929
hand	-12.2935
▁expedi	-12.2936
mitted	-12.2945
▁flan	-12.297
jo	-12.297
host	-12.2981
elect	-12.2982
course	-12.2995
lc	-12.3003
▁chart	-12.3017
▁vac	-12.3017
▁handicap	-12.3017
▁promotion	-12.3017
▁bridesmaid	-12.3017
▁pamper	-12.3017
▁kool	-12.3018
▁proportion	-12.3018
▁valid	-12.3026
▁scen	-12.303
umm	-12.3045
▁title	-12.3053
▁glor	-12.3062
ash	-12.3065
rbon	-12.3068
fic	-12.3076
asil	-12.3085
▁snappe	-12.3093
▁beca	-12.3099
▁hue	-12.3102
▁packet	-12.3107
▁chao	-12.3114
▁spit	-12.3115
ott	-12.3116
▁matche	-12.3125
ella	-12.3136
▁arti	-12.3145
rink	-12.3158
▁hous	-12.3171
cture	-12.3175
ership	-12.3177
ussel	-12.32
▁mang	-12.3225
ager	-12.324
▁jes	-12.3247
milk	-12.3251
nie	-12.3254
▁closes	-12.3254
verse	-12.3261
ops	-12.3275
cat	-12.328
▁text	-12.328
that	-12.329
bie	-12.3301
▁circ	-12.3302
▁wit	-12.3303
▁chee	-12.3304
tak	-12.3309
allowe	-12.3316
▁shin	-12.332
gina	-12.3327
▁prov	-12.333
▁albe	-12.335
uccin	-12.3363
ills	-12.3369
tant	-12.3387
▁surround	-12.3396
elt	-12.3399
ins	-12.3404
▁linen	-12.3425
rian	-12.3441
standard	-12.3442
mol	-12.3443
▁cooper	-12.3449
▁abuelo	-12.3451
▁adopt	-12.3451
▁crumb	-12.3454
▁bulb	-12.3456
▁visual	-12.3457
▁flaming	-12.3457
▁dislike	-12.3476
▁blind	-12.3493
ou	-12.3497
▁ble	-12.3501
tcher	-12.351
va	-12.3513
▁cross	-12.3518
competen	-12.3524
▁cere	-12.3542
▁barri	-12.3545
▁prep	-12.3563
quil	-12.3569
fair	-12.3578
▁mug	-12.3589
redo	-12.3597
▁winn	-12.3602
▁cour	-12.3613
roma	-12.3618
▁tan	-12.3624
ah	-12.3627
luke	-12.3635
nual	-12.3639
cky	-12.3659
hocke	-12.3659
▁jane	-12.3667
reliabl	-12.3685
tte	-12.3692
▁moto	-12.3711
aise	-12.3712
▁commit	-12.3714
had	-12.3716
▁grad	-12.3717
tiff	-12.3731
▁cell	-12.3739
▁vib	-12.3743
▁fina	-12.3757
sleep	-12.3779
▁disp	-12.3781
▁pete	-12.3788
ntic	-12.3819
mal	-12.3823
▁adob	-12.3835
▁hesita	-12.3838
edit	-12.3859
equ	-12.3862
eful	-12.3868
scar	-12.3883
pbe	-12.3888
▁ev	-12.3895
▁bianc	-12.39
▁flancer	-12.3906
▁sprinkle	-12.3906
erica	-12.3907
flow	-12.3908
fection	-12.392
egan	-12.3931
igi	-12.3951
pher	-12.3958
▁carol	-12.3971
br	-12.3978
cycl	-12.399
mpor	-12.3991
▁artis	-12.3996
pap	-12.4006
dren	-12.4011
issa	-12.4011
▁strict	-12.4012
▁em	-12.4012
rst	-12.4032
rgot	-12.4034
▁arch	-12.4038
together	-12.4059
rie	-12.406
achel	-12.4062
sed	-12.4065
▁commi	-12.4077
opp	-12.408
▁jus	-12.4086
▁mu	-12.4092
▁ding	-12.4094
oori	-12.4099
▁washer	-12.4099
▁intend	-12.4115
rogan	-12.4122
▁imp	-12.4149
▁inch	-12.4156
▁overc	-12.4161
give	-12.4162
wood	-12.4172
▁therap	-12.4181
▁route	-12.4185
rist	-12.4189
reeze	-12.4197
wire	-12.4199
▁reserv	-12.4202
▁poster	-12.4206
strom	-12.4224
life	-12.4232
dal	-12.4248
inn	-12.4255
▁substitut	-12.4258
▁attract	-12.4265
apo	-12.4272
▁arra	-12.4275
filling	-12.4285
▁louis	-12.4288
anner	-12.4305
▁cand	-12.4309
▁cott	-12.4344
▁mode	-12.4356
lier	-12.4364
▁dra	-12.4365
tique	-12.4374
▁upgrad	-12.4374
▁truffle	-12.4378
▁reclin	-12.4379
crowd	-12.4387
▁fin	-12.4392
ustin	-12.4396
trol	-12.44
▁runner	-12.4426
▁blo	-12.4427
▁kille	-12.4429
▁poppe	-12.4435
parent	-12.444
has	-12.4443
▁anyw	-12.445
▁siz	-12.4472
nk	-12.4481
tive	-12.4483
hat	-12.4495
daughter	-12.45
▁atten	-12.4517
enny	-12.4517
▁rum	-12.4518
rove	-12.4519
▁anywh	-12.4542
▁torte	-12.4561
lunch	-12.4563
▁fac	-12.4576
through	-12.4579
rub	-12.4588
aul	-12.46
itation	-12.46
di	-12.4601
angu	-12.4609
att	-12.4634
onest	-12.4643
▁heater	-12.4655
taste	-12.4659
tal	-12.4684
▁monte	-12.4691
▁raisin	-12.4691
▁carib	-12.4693
equi	-12.4705
▁exce	-12.4711
rol	-12.4726
▁atm	-12.473
▁struggl	-12.474
umble	-12.4741
▁noticeabl	-12.4785
▁communicat	-12.4808
mex	-12.4843
ask	-12.4851
cos	-12.4854
▁pl	-12.4855
omat	-12.4869
▁rac	-12.4877
▁climb	-12.4878
▁uniform	-12.4878
▁arrange	-12.4878
▁survive	-12.4878
▁curtain	-12.4879
▁preference	-12.4881
▁michelada	-12.4881
▁dvd	-12.4881
▁outfit	-12.4887
▁ounce	-12.4899
rugg	-12.4906
▁wicke	-12.4925
adilla	-12.4927
▁lind	-12.4932
▁collect	-12.4933
opping	-12.4933
ica	-12.4946
tial	-12.4947
▁el	-12.4947
pot	-12.4959
ason	-12.4966
▁lun	-12.4968
ficial	-12.4974
ump	-12.498
evic	-12.4992
make	-12.4995
mog	-12.5008
ga	-12.5009
▁region	-12.5012
▁wai	-12.5015
▁fold	-12.5015
▁reco	-12.5018
▁rig	-12.5025
health	-12.5032
ube	-12.5033
▁bump	-12.5034
alway	-12.5035
▁brow	-12.5042
▁smel	-12.5045
inner	-12.5051
col	-12.5055
▁sauc	-12.5059
best	-12.5062
arrow	-12.5071
wash	-12.5075
▁spi	-12.5075
▁zip	-12.5091
nera	-12.5096
safe	-12.5098
ph	-12.5102
▁delic	-12.5149
▁scot	-12.5155
▁bot	-12.517
▁lin	-12.5197
were	-12.5202
▁beginner	-12.5203
lder	-12.5204
▁pin	-12.5212
▁excellen	-12.5222
late	-12.5223
punctu	-12.5226
sitive	-12.5235
▁bene	-12.5251
winds	-12.5258
regard	-12.5261
han	-12.5299
reme	-12.5303
telli	-12.5311
pupp	-12.5311
▁lip	-12.5326
▁patric	-12.5332
▁feb	-12.5349
novati	-12.5354
lime	-12.5355
uran	-12.5368
fr	-12.5374
ikk	-12.5389
ensi	-12.5403
▁micro	-12.5405
grette	-12.5406
assum	-12.5412
▁urge	-12.5414
hey	-12.5424
▁dice	-12.5438
berr	-12.5439
set	-12.5445
iece	-12.5448
▁yo	-12.5454
▁sore	-12.547
uation	-12.5484
ona	-12.5501
ag	-12.5503
▁var	-12.5513
▁darl	-12.5526
trus	-12.5539
vo	-12.5546
cted	-12.5549
aught	-12.5554
▁barro	-12.5585
bs	-12.5592
▁nation	-12.5592
▁pol	-12.5618
▁mil	-12.5627
▁sm	-12.5628
aud	-12.5631
▁pers	-12.5638
▁tower	-12.5641
alsa	-12.565
tenni	-12.5652
hiro	-12.569
ugg	-12.5716
▁rais	-12.5728
▁gran	-12.5729
inger	-12.573
▁sip	-12.5733
onna	-12.5736
▁eff	-12.5757
▁flavo	-12.5766
▁plum	-12.5776
lee	-12.5776
▁charles	-12.5796
▁clu	-12.5834
raving	-12.5855
▁norm	-12.5859
▁holl	-12.5859
zo	-12.5861
▁zi	-12.5865
marily	-12.5871
▁cycl	-12.5893
para	-12.5903
▁resc	-12.5904
▁porto	-12.5909
▁song	-12.5935
▁bis	-12.594
▁approv	-12.5952
rump	-12.5956
▁dermatolog	-12.596
▁exhaust	-12.596
▁skewer	-12.596
▁shuffle	-12.596
▁tuscan	-12.596
iki	-12.5962
▁neg	-12.5969
▁flash	-12.5979
▁novel	-12.5986
oze	-12.5989
▁blank	-12.6028
erci	-12.6032
▁plumber	-12.6034
ea	-12.6036
tern	-12.6047
dinner	-12.6052
well	-12.6056
▁consist	-12.6063
▁enthusias	-12.6073
▁alter	-12.608
its	-12.6087
arc	-12.6095
▁jac	-12.611
iti	-12.613
source	-12.6147
▁ka	-12.615
appointment	-12.6158
mg	-12.6159
▁specialt	-12.6171
ficient	-12.6174
unt	-12.6174
▁wig	-12.6176
▁perk	-12.6179
▁signa	-12.6186
cul	-12.6193
▁pale	-12.6193
clusi	-12.6221
▁unappe	-12.6226
▁carb	-12.6226
lies	-12.6233
fest	-12.6234
▁cheape	-12.6246
mars	-12.6248
▁rotate	-12.6259
▁confusi	-12.626
▁krist	-12.6262
akes	-12.6276
llow	-12.6283
baco	-12.629
ges	-12.6295
▁hou	-12.6303
omet	-12.6313
▁orga	-12.6325
aqui	-12.6342
wan	-12.6348
stylist	-12.6355
den	-12.6362
stock	-12.6366
▁fade	-12.6383
▁kit	-12.6392
eck	-12.6403
▁exceeding	-12.6408
▁mont	-12.6422
iggin	-12.6424
▁crow	-12.6424
▁efficien	-12.6429
▁packag	-12.6431
▁rico	-12.6434
▁qualif	-12.6453
fashion	-12.6457
orie	-12.6459
rap	-12.6482
▁qu	-12.6488
▁sla	-12.6493
▁nerve	-12.6495
▁cla	-12.6524
▁ris	-12.6529
mother	-12.653
▁scal	-12.6541
▁bat	-12.6545
▁hygien	-12.6547
wind	-12.6548
▁souvenir	-12.6548
▁dynami	-12.6548
▁technical	-12.6548
▁poste	-12.6555
▁silk	-12.656
▁haunt	-12.6562
▁bos	-12.6566
▁albert	-12.6615
▁valu	-12.6617
inal	-12.662
▁agen	-12.6625
▁jew	-12.6631
▁asse	-12.6636
ali	-12.6636
▁fur	-12.6641
recommend	-12.6644
▁petit	-12.6656
igat	-12.6667
shit	-12.667
word	-12.6688
▁prom	-12.6691
ors	-12.6696
aaa	-12.6706
there	-12.6725
▁crus	-12.6737
▁crea	-12.6754
adas	-12.6756
gs	-12.6762
▁livi	-12.6764
▁trav	-12.6765
bar	-12.6767
▁belie	-12.679
▁consume	-12.6793
ua	-12.6797
ks	-12.6851
ripp	-12.6855
▁ins	-12.6867
ess	-12.6877
▁pitt	-12.6889
▁oliv	-12.6889
minist	-12.6897
lig	-12.6899
nex	-12.6933
▁dian	-12.696
mmen	-12.6962
▁ses	-12.6962
▁misse	-12.697
▁prici	-12.7012
elling	-12.7019
peri	-12.7026
ichu	-12.7028
▁imagin	-12.7052
cum	-12.7072
▁grac	-12.7076
ds	-12.709
live	-12.7103
cho	-12.7123
▁comi	-12.7136
▁sigh	-12.7138
pens	-12.7151
▁manu	-12.7155
tub	-12.7167
blo	-12.7169
▁microbrew	-12.7173
loa	-12.7173
▁grinder	-12.7175
▁sen	-12.7178
liber	-12.7182
▁shak	-12.7194
ations	-12.7206
ethic	-12.7209
chat	-12.7216
▁struc	-12.7222
▁protect	-12.7229
▁mega	-12.7253
▁prescri	-12.7256
nger	-12.726
pac	-12.7264
▁kitt	-12.7266
nna	-12.7273
▁shu	-12.7279
fast	-12.7286
yc	-12.7301
▁caf	-12.7306
empl	-12.7316
▁yr	-12.7324
rful	-12.7334
▁longe	-12.7337
▁taqu	-12.7338
greed	-12.7341
▁insu	-12.7344
▁cate	-12.7354
nu	-12.7368
▁force	-12.7384
▁etouf	-12.7394
▁hal	-12.741
▁famil	-12.7413
hearted	-12.7415
▁roy	-12.7425
rday	-12.7441
ets	-12.7463
truck	-12.7467
ug	-12.7473
acious	-12.7478
oreo	-12.7491
hu	-12.7513
▁reg	-12.7523
▁sole	-12.753
eceiv	-12.754
▁x	-12.7551
ello	-12.7572
ban	-12.7587
▁rug	-12.7601
▁princ	-12.7617
view	-12.7645
date	-12.7646
▁owe	-12.7664
mp	-12.7666
void	-12.7669
nice	-12.767
▁prove	-12.7677
▁singer	-12.7701
fil	-12.7708
▁relat	-12.7711
apolog	-12.7719
▁swi	-12.7728
erin	-12.7732
lap	-12.7734
▁diagnose	-12.7752
avo	-12.7762
▁mia	-12.7762
▁goin	-12.7763
wer	-12.7782
tation	-12.7792
tober	-12.7799
oj	-12.7826
▁hea	-12.7832
▁establish	-12.7835
excus	-12.7838
eau	-12.7838
▁cosmetic	-12.7839
gula	-12.785
icy	-12.785
tract	-12.7884
▁maki	-12.7898
▁ann	-12.7902
league	-12.7914
▁imaginati	-12.7938
gian	-12.794
azi	-12.7941
▁aesthetic	-12.7942
▁te	-12.7943
▁cage	-12.7976
▁dent	-12.7986
▁fli	-12.8005
▁conco	-12.8005
die	-12.8016
lab	-12.8031
▁doub	-12.8038
dicat	-12.804
▁rubbe	-12.8044
know	-12.8057
▁awe	-12.8059
evin	-12.8081
ider	-12.8084
▁todd	-12.8086
cell	-12.809
▁rene	-12.8091
tup	-12.8101
she	-12.8105
urb	-12.8128
▁hardw	-12.8132
onda	-12.8161
▁maker	-12.8161
▁lega	-12.8174
amazing	-12.8202
bib	-12.8218
▁lb	-12.8219
chair	-12.8237
▁jell	-12.8247
ava	-12.8255
ser	-12.8267
▁roti	-12.8277
just	-12.8289
cura	-12.8292
▁styl	-12.8308
qualit	-12.8399
rdon	-12.8402
book	-12.8427
manti	-12.843
engin	-12.8457
▁reci	-12.8458
ord	-12.846
mba	-12.8466
morr	-12.847
olks	-12.8477
keri	-12.8479
glass	-12.849
maintain	-12.8504
▁financi	-12.8511
▁mai	-12.8514
▁spect	-12.8519
▁dist	-12.8519
▁bel	-12.8524
▁barn	-12.8526
hol	-12.8528
grant	-12.8535
nn	-12.8549
▁accomp	-12.8553
▁recogni	-12.8553
▁birth	-12.8553
etail	-12.8554
gy	-12.8555
valent	-12.8556
min	-12.8559
▁profession	-12.857
ator	-12.857
home	-12.8587
their	-12.8593
pie	-12.8596
▁approve	-12.8596
orit	-12.8598
rage	-12.8603
addin	-12.861
uts	-12.8617
▁surf	-12.8621
▁dino	-12.8623
else	-12.8626
▁conver	-12.8634
bach	-12.8651
▁denn	-12.8665
ccent	-12.8669
check	-12.8671
essential	-12.8692
▁comm	-12.8703
▁conversational	-12.8705
eel	-12.8708
▁val	-12.8717
▁bumpe	-12.8718
ran	-12.8725
▁fed	-12.8755
sting	-12.8766
▁tart	-12.8766
▁str	-12.8788
lite	-12.8798
nus	-12.8801
ivia	-12.8821
dress	-12.8844
mela	-12.885
▁freeze	-12.8876
▁fai	-12.889
pk	-12.8899
cio	-12.8919
your	-12.893
▁toss	-12.8932
dona	-12.8961
▁vis	-12.8966
▁preten	-12.8971
shie	-12.8972
poli	-12.8982
esar	-12.8986
▁tux	-12.8995
voice	-12.9031
call	-12.9052
west	-12.9054
lexi	-12.9061
acci	-12.9073
amen	-12.9079
achi	-12.9105
▁hosti	-12.9117
ust	-12.9124
act	-12.9132
▁kits	-12.9144
og	-12.9146
▁suffic	-12.9174
▁intim	-12.919
▁contra	-12.9202
▁examin	-12.9226
▁bre	-12.9235
▁viv	-12.9239
arge	-12.9246
minal	-12.9255
bean	-12.9259
delicious	-12.9277
▁equi	-12.9282
▁vene	-12.929
▁mrs	-12.9296
runk	-12.9308
abou	-12.9313
tance	-12.9315
▁bachelor	-12.9323
▁coordinat	-12.9323
▁element	-12.9329
anti	-12.933
▁nik	-12.934
▁generation	-12.9343
aint	-12.9344
script	-12.9371
comfort	-12.9392
▁stra	-12.9396
icle	-12.9398
▁hy	-12.9411
fa	-12.9415
would	-12.9431
▁mul	-12.9457
▁env	-12.9458
llo	-12.9459
▁tama	-12.9459
▁kiddo	-12.9461
▁claw	-12.9464
gine	-12.9466
ident	-12.9467
litt	-12.9469
mple	-12.9476
▁bikin	-12.9487
rough	-12.9518
rio	-12.9527
rise	-12.9538
▁struggle	-12.9541
owners	-12.9556
evil	-12.9556
name	-12.9572
▁souffl	-12.9578
▁mist	-12.9578
lve	-12.9604
tale	-12.9614
▁op	-12.9624
ral	-12.9633
▁tran	-12.9635
ubi	-12.9643
velo	-12.9647
lgo	-12.9648
dly	-12.9653
▁ipa	-12.9681
solution	-12.9694
fall	-12.9704
▁positi	-12.9707
ope	-12.9724
▁butt	-12.9758
ummer	-12.9777
piece	-12.9782
topping	-12.9782
acher	-12.9784
ounding	-12.98
▁quest	-12.9801
machi	-12.982
vd	-12.9824
▁gaine	-12.9827
▁wr	-12.9859
▁seek	-12.9861
roll	-12.9868
fo	-12.9875
▁bruc	-12.9877
tom	-12.9878
▁yummm	-12.9882
im	-12.9885
onut	-12.9889
ital	-12.99
lea	-12.9901
▁bubbl	-12.9903
chine	-12.9906
▁ohh	-12.992
▁caro	-12.9921
▁kai	-12.9932
▁loui	-12.9939
air	-12.994
▁invi	-12.997
hoo	-13.0005
ken	-13.0012
bud	-13.0013
▁maur	-13.0025
ces	-13.0036
▁drinker	-13.0039
▁coc	-13.0041
ss	-13.0063
▁explo	-13.0063
ris	-13.0066
▁redo	-13.0084
aro	-13.0088
please	-13.009
▁smo	-13.0095
bon	-13.0117
▁ec	-13.0121
definite	-13.0143
▁practi	-13.0147
▁rocke	-13.015
▁bouncer	-13.0156
▁tournament	-13.0156
▁virgin	-13.0156
▁desp	-13.016
proxim	-13.0161
wa	-13.0171
▁stripper	-13.0197
▁commu	-13.0199
▁tear	-13.0199
▁disney	-13.0208
▁rad	-13.0211
sg	-13.0225
pho	-13.0228
ev	-13.0231
▁map	-13.0248
▁recom	-13.0255
rtifi	-13.0256
▁insight	-13.0301
ric	-13.0302
cin	-13.0329
ee	-13.0332
▁soooooooo	-13.0351
fect	-13.0352
▁rival	-13.0358
ass	-13.0359
touffe	-13.0362
▁mount	-13.0386
blan	-13.0402
▁prepa	-13.0411
customer	-13.0414
open	-13.0426
▁popper	-13.0434
▁hir	-13.0449
eni	-13.0453
ron	-13.0454
fre	-13.0459
rn	-13.0465
eleph	-13.0485
rag	-13.0501
▁surp	-13.0502
▁rus	-13.0513
connect	-13.0518
▁dav	-13.0524
ains	-13.0529
rsal	-13.0532
▁inten	-13.0545
cheese	-13.0551
rican	-13.057
yr	-13.0577
▁ic	-13.0583
▁respons	-13.0593
cient	-13.0593
▁ste	-13.0602
bec	-13.0622
sto	-13.0638
rhea	-13.0638
try	-13.0645
▁scratche	-13.0656
▁missi	-13.0705
▁reminde	-13.0731
▁peo	-13.0742
too	-13.0773
cing	-13.0783
cc	-13.0791
▁ap	-13.0807
▁ill	-13.0809
iest	-13.0817
▁skille	-13.0845
cut	-13.087
qua	-13.0875
order	-13.0876
let	-13.0877
rides	-13.0889
ita	-13.0895
▁tool	-13.0912
aved	-13.0921
rank	-13.0922
▁rel	-13.0923
ixture	-13.0964
stin	-13.0965
▁salo	-13.0967
pd	-13.0984
wee	-13.0995
▁collar	-13.1
van	-13.1002
phe	-13.1004
▁opera	-13.101
▁checkin	-13.1011
▁typ	-13.1024
vern	-13.1042
ques	-13.1049
rib	-13.1052
hama	-13.1054
osphere	-13.1069
▁plug	-13.1093
▁kilt	-13.1097
anta	-13.1104
role	-13.1129
▁erik	-13.1136
anya	-13.114
art	-13.115
vac	-13.1173
see	-13.1173
▁patr	-13.118
▁coll	-13.1184
wish	-13.119
▁auth	-13.1207
lli	-13.1211
▁cele	-13.1217
▁personali	-13.1227
▁war	-13.1237
eez	-13.1244
lie	-13.1245
pia	-13.1246
▁lick	-13.1249
ioc	-13.1253
▁cob	-13.1258
▁kon	-13.126
ache	-13.1263
▁eth	-13.1263
arth	-13.1265
▁ros	-13.1276
dow	-13.1277
match	-13.1292
luc	-13.1292
▁pen	-13.13
zat	-13.1301
icia	-13.1303
lon	-13.132
▁appreciati	-13.1351
trict	-13.1384
gran	-13.1386
excellent	-13.1386
fro	-13.1415
eve	-13.1421
▁tele	-13.1424
agi	-13.1442
▁lis	-13.145
lette	-13.145
▁touche	-13.1471
▁sin	-13.1471
▁plat	-13.1521
▁arts	-13.1523
fee	-13.1528
qu	-13.1534
actic	-13.1547
crust	-13.155
▁bik	-13.1564
unda	-13.158
si	-13.1607
forgett	-13.161
niti	-13.162
rim	-13.1635
▁ur	-13.1639
hor	-13.1644
lash	-13.1645
▁cree	-13.1654
zard	-13.1655
▁masa	-13.1667
rward	-13.1668
▁nam	-13.1675
▁residen	-13.1678
▁mim	-13.1693
gras	-13.1714
▁repu	-13.1714
istic	-13.1717
lt	-13.1729
ye	-13.1729
▁sou	-13.1735
ost	-13.1739
▁gai	-13.1747
idi	-13.1764
run	-13.1769
bass	-13.1793
press	-13.1795
▁bella	-13.1805
every	-13.1814
▁lar	-13.1817
▁creati	-13.1872
▁infl	-13.1873
thod	-13.1875
▁snap	-13.1884
▁restor	-13.1893
els	-13.1895
lance	-13.1901
▁ter	-13.1914
▁inter	-13.1927
▁remin	-13.1938
runs	-13.1956
corp	-13.1957
nner	-13.2002
lori	-13.2006
▁ahh	-13.2008
spacio	-13.2014
ros	-13.2015
fficient	-13.2018
loh	-13.2027
ronic	-13.2031
▁refresh	-13.2031
▁regist	-13.2044
dish	-13.2051
vation	-13.2059
▁stall	-13.2079
▁trimming	-13.2086
▁sil	-13.2106
arca	-13.2142
gio	-13.2148
▁expan	-13.2152
▁compe	-13.2157
▁installe	-13.2161
chan	-13.2167
put	-13.2172
▁clut	-13.218
▁summ	-13.2195
▁thr	-13.2197
rof	-13.2203
ined	-13.2207
▁readi	-13.2233
▁carniv	-13.224
bone	-13.2243
▁fitt	-13.2245
ram	-13.2263
rare	-13.2271
▁prof	-13.2287
▁fif	-13.2294
erior	-13.2335
yl	-13.2353
tire	-13.2357
▁pierc	-13.2366
eliz	-13.2397
beth	-13.2403
▁combin	-13.2406
jack	-13.2407
▁retr	-13.2423
hamp	-13.2423
▁dece	-13.2436
▁amus	-13.2439
sit	-13.2453
abl	-13.2464
esthetic	-13.2468
anks	-13.2488
▁dut	-13.2491
oile	-13.2512
▁brai	-13.2537
ision	-13.254
▁hoa	-13.2545
shes	-13.2547
▁pots	-13.2553
oche	-13.2564
monic	-13.2587
▁tun	-13.2588
▁trimm	-13.2603
▁fra	-13.2604
scott	-13.2635
▁pos	-13.2642
otb	-13.2661
lax	-13.2673
irl	-13.268
kly	-13.2685
▁overhea	-13.2688
irsty	-13.2698
stress	-13.2705
▁defin	-13.275
atur	-13.2761
tho	-13.2777
ossibl	-13.2777
eston	-13.2793
oka	-13.2803
quet	-13.2804
peno	-13.2808
▁biker	-13.2823
riot	-13.2847
matche	-13.2857
take	-13.2858
illia	-13.287
hon	-13.2886
▁pb	-13.2888
▁pres	-13.2902
leas	-13.2917
hine	-13.2919
eign	-13.2927
▁caus	-13.2934
sati	-13.2946
plicat	-13.2956
grat	-13.2961
ours	-13.2987
lant	-13.2988
taki	-13.2996
hick	-13.3043
gun	-13.3043
▁susp	-13.3044
apas	-13.3049
whi	-13.3063
cco	-13.3078
sappoint	-13.3097
cons	-13.3101
chain	-13.311
▁saf	-13.3113
mash	-13.3132
never	-13.3144
smati	-13.3147
think	-13.3148
endar	-13.3149
usto	-13.3156
▁elevat	-13.3171
▁situat	-13.3177
▁gringo	-13.319
▁stran	-13.3195
▁chimich	-13.3206
▁paris	-13.3209
▁mart	-13.3212
▁acc	-13.3212
osso	-13.3217
nkin	-13.3236
mbie	-13.3237
urri	-13.3238
▁brewe	-13.324
walk	-13.3244
oth	-13.3257
▁recover	-13.3258
tor	-13.3259
▁invite	-13.3281
icious	-13.3293
rita	-13.3297
lew	-13.3305
phy	-13.333
cking	-13.3356
rv	-13.3363
▁loc	-13.3372
wen	-13.3375
▁mic	-13.3386
sam	-13.3393
▁gir	-13.3399
▁christi	-13.3401
▁ret	-13.3416
rito	-13.3417
▁luc	-13.3424
▁amaze	-13.343
▁soci	-13.3433
▁poo	-13.3435
ect	-13.3437
▁buc	-13.3447
treat	-13.3452
▁jacks	-13.3453
arkin	-13.3468
▁bam	-13.3488
▁ohhh	-13.3498
hall	-13.3508
▁rar	-13.3519
hai	-13.3554
ano	-13.356
▁hol	-13.3565
nova	-13.3613
batt	-13.3613
▁crim	-13.3618
nit	-13.3639
▁stoo	-13.3649
eal	-13.366
again	-13.3661
▁foc	-13.3674
owns	-13.3675
sp	-13.369
tree	-13.3709
ouch	-13.3723
sound	-13.3726
fresh	-13.3743
▁compli	-13.3747
len	-13.3754
times	-13.3772
▁atmospher	-13.3792
ynth	-13.3804
▁dir	-13.3812
ctor	-13.3814
prepare	-13.3815
zin	-13.3821
▁cutt	-13.3843
evo	-13.3857
erful	-13.3876
▁candie	-13.3889
▁cance	-13.3905
ustic	-13.3921
▁pur	-13.3928
▁cul	-13.3941
▁restr	-13.3958
unk	-13.3961
tain	-13.3969
toni	-13.3993
▁vent	-13.4017
▁gain	-13.4022
plen	-13.4037
ane	-13.4039
mmm	-13.4044
▁omlet	-13.4049
▁imag	-13.4051
aff	-13.4075
▁chari	-13.4078
donald	-13.4084
wick	-13.4085
fact	-13.4086
▁ow	-13.4123
chee	-13.4123
rus	-13.4135
▁consiste	-13.4139
edication	-13.4167
aj	-13.4199
erie	-13.4217
▁busi	-13.4217
eta	-13.4222
face	-13.4222
rum	-13.4223
▁cau	-13.4258
hhh	-13.4262
noo	-13.4262
▁playe	-13.4263
▁cru	-13.4275
iv	-13.4278
ark	-13.4289
▁eate	-13.4294
essar	-13.4297
▁cast	-13.4302
quire	-13.4315
hr	-13.4318
tha	-13.434
iger	-13.4349
crap	-13.4358
illin	-13.4366
ffe	-13.4371
grav	-13.4372
▁celebrit	-13.4428
chetta	-13.4429
▁hun	-13.4451
▁featur	-13.4466
matic	-13.4474
nno	-13.4479
aura	-13.4493
tan	-13.4493
cloth	-13.4495
ibra	-13.4496
awesome	-13.4504
▁confi	-13.4506
▁gin	-13.4509
angle	-13.451
orn	-13.4522
pad	-13.4523
plor	-13.4534
▁ai	-13.4549
favorite	-13.455
got	-13.4562
gain	-13.4578
club	-13.458
bab	-13.458
remon	-13.4592
sippi	-13.4598
tin	-13.4606
▁unhe	-13.4607
guin	-13.461
anic	-13.461
bed	-13.4635
▁billi	-13.4639
polit	-13.4647
pizza	-13.4655
gag	-13.4658
▁bust	-13.4665
cialize	-13.4681
illi	-13.4706
cca	-13.4712
tri	-13.4718
eth	-13.4719
oes	-13.4739
▁ce	-13.4744
entine	-13.4769
▁loca	-13.4774
tome	-13.4779
▁rod	-13.4814
servati	-13.482
casino	-13.4852
aby	-13.4872
ibut	-13.4878
▁unl	-13.4883
icott	-13.489
▁mea	-13.4906
quir	-13.4926
oulder	-13.4937
tions	-13.4941
▁peru	-13.4952
gonz	-13.4957
av	-13.4968
▁pun	-13.4976
meh	-13.4978
lse	-13.498
wed	-13.5023
gu	-13.5028
▁listene	-13.5036
imb	-13.5049
hard	-13.506
▁automat	-13.5098
omic	-13.5107
▁bran	-13.5144
organ	-13.5145
sci	-13.5147
▁hopp	-13.515
oria	-13.5154
▁worke	-13.5158
oxi	-13.5169
gela	-13.5176
bl	-13.5177
reat	-13.5188
hank	-13.5213
llowe	-13.5213
oud	-13.5224
latter	-13.5225
igan	-13.5237
hance	-13.5256
▁yu	-13.5263
▁activ	-13.5281
▁performe	-13.5297
▁flu	-13.53
xt	-13.5302
istent	-13.5304
rc	-13.5317
strat	-13.5321
▁fest	-13.5328
oodle	-13.5336
chell	-13.5372
▁dev	-13.5421
▁natur	-13.5441
ilan	-13.5458
entical	-13.5464
olate	-13.5466
dise	-13.5479
plane	-13.5516
▁sens	-13.5525
▁pens	-13.5535
tast	-13.5535
hich	-13.5553
nake	-13.5557
eath	-13.5574
▁excell	-13.5607
▁rav	-13.5608
▁cracke	-13.5612
ecision	-13.5617
thur	-13.5617
nter	-13.5628
▁sle	-13.5648
tur	-13.5651
lege	-13.5674
sus	-13.5678
ec	-13.569
rge	-13.5705
▁consci	-13.5709
▁rol	-13.5724
▁rust	-13.574
sight	-13.5743
izon	-13.5749
disappoint	-13.5751
paci	-13.5754
ellen	-13.5766
viti	-13.5793
usa	-13.5804
▁thir	-13.5817
▁hero	-13.5824
rystal	-13.5855
▁mcdo	-13.5855
uarant	-13.5856
pan	-13.5859
ngu	-13.5878
bbi	-13.5887
nion	-13.5894
ens	-13.5898
▁cris	-13.5935
eeding	-13.5937
▁watche	-13.5949
hang	-13.5965
tera	-13.5976
▁deco	-13.5994
awn	-13.5995
net	-13.6009
cac	-13.6027
ition	-13.6031
abb	-13.6043
form	-13.6058
season	-13.6081
▁capi	-13.6086
▁muff	-13.6096
aki	-13.6126
lad	-13.6132
▁yar	-13.6135
▁bib	-13.6153
▁accord	-13.6155
▁frost	-13.6162
▁traine	-13.6167
omp	-13.6167
bell	-13.6175
ats	-13.6181
▁empa	-13.6197
wors	-13.6199
▁squ	-13.6204
mouth	-13.6215
bah	-13.6216
ovie	-13.6224
enc	-13.6254
maze	-13.6288
▁aut	-13.6294
wns	-13.6294
eps	-13.6298
▁jud	-13.6303
▁kee	-13.6306
ools	-13.6308
▁doll	-13.6316
nks	-13.6319
rlot	-13.6325
teak	-13.6331
nfl	-13.6348
uc	-13.6348
▁fig	-13.6366
hats	-13.6382
urne	-13.6384
load	-13.6396
look	-13.6396
▁shoppe	-13.641
▁tasti	-13.6413
▁fau	-13.6419
▁wri	-13.6423
size	-13.6427
tly	-13.6429
▁cor	-13.6452
utter	-13.6471
location	-13.6475
icken	-13.6507
ander	-13.6534
▁relati	-13.6548
▁fas	-13.655
▁pea	-13.6564
▁opene	-13.6578
▁sq	-13.6579
state	-13.658
▁mes	-13.6587
▁washe	-13.6658
pper	-13.6702
russel	-13.6704
▁spee	-13.6706
erge	-13.6721
cracker	-13.6751
miss	-13.6761
igu	-13.6785
▁sca	-13.6793
wait	-13.684
bro	-13.6846
could	-13.686
special	-13.6861
atmosphere	-13.6885
fri	-13.6886
sical	-13.6886
bad	-13.6914
▁bren	-13.6928
prett	-13.6986
dor	-13.7029
▁competit	-13.7034
rona	-13.7071
▁han	-13.7075
rg	-13.7075
ecca	-13.7082
onio	-13.7126
close	-13.7154
▁discussi	-13.7172
agree	-13.7175
watch	-13.7178
holes	-13.7178
ung	-13.7181
ention	-13.7193
yout	-13.7215
uper	-13.7216
horribl	-13.7249
sian	-13.7261
ppe	-13.727
▁mich	-13.7273
trick	-13.7281
super	-13.7288
bus	-13.7291
▁que	-13.7304
oon	-13.7306
onz	-13.7313
chicken	-13.7321
▁sy	-13.7324
tical	-13.7324
ivers	-13.7335
llard	-13.734
▁dc	-13.7346
pleas	-13.7383
▁aff	-13.74
hetic	-13.7404
▁barba	-13.7412
▁theme	-13.7417
▁mol	-13.7429
▁groome	-13.7443
dul	-13.7475
urate	-13.7477
fl	-13.7479
▁cleane	-13.749
▁alternat	-13.7519
▁overp	-13.7524
vid	-13.7524
▁bree	-13.7525
flu	-13.7526
nate	-13.7573
atricia	-13.7591
▁bol	-13.7602
lling	-13.7602
when	-13.763
▁gods	-13.7639
▁whats	-13.7648
▁ful	-13.7652
ath	-13.7662
sita	-13.7663
▁mer	-13.7663
ils	-13.7674
▁swe	-13.7678
commend	-13.7686
▁intr	-13.769
▁shou	-13.769
beer	-13.7697
upie	-13.7702
ioli	-13.7709
ala	-13.7735
eeling	-13.779
rch	-13.7806
▁mosc	-13.7811
kj	-13.7813
▁waits	-13.7836
hines	-13.7837
tram	-13.7852
rin	-13.786
lph	-13.7861
▁sop	-13.7862
laine	-13.7873
▁relate	-13.789
xisten	-13.7895
▁ethi	-13.7901
sche	-13.7919
enjoy	-13.7936
wonderful	-13.7939
▁carp	-13.7945
▁cookin	-13.7986
bg	-13.8012
▁reli	-13.8017
▁res	-13.8025
rano	-13.8047
lmon	-13.8049
uar	-13.8075
locat	-13.8075
▁cam	-13.8076
▁surv	-13.8093
▁sno	-13.8094
unction	-13.8103
occ	-13.8167
▁rockin	-13.8191
entic	-13.8218
lina	-13.8219
poi	-13.8242
ya	-13.8251
ads	-13.827
handle	-13.8282
▁es	-13.8282
▁sic	-13.8287
▁ah	-13.8316
liv	-13.8325
lit	-13.8326
▁jod	-13.8369
phere	-13.8382
▁thom	-13.8385
yle	-13.842
nam	-13.8442
ntici	-13.8453
ams	-13.8483
▁gino	-13.8493
obb	-13.8505
zol	-13.8523
▁dome	-13.8536
▁absolut	-13.8537
lter	-13.855
▁cooki	-13.8554
du	-13.8571
gri	-13.8598
clo	-13.8601
▁dissap	-13.8605
▁oct	-13.8616
absolute	-13.8643
mes	-13.865
aving	-13.8686
mak	-13.8691
zel	-13.8701
san	-13.8761
vari	-13.8771
full	-13.8772
pirat	-13.8779
ucci	-13.8785
pl	-13.8787
gree	-13.8804
orm	-13.8806
▁ours	-13.8808
nclu	-13.8824
fantastic	-13.8825
mar	-13.8838
phi	-13.8844
sell	-13.8847
▁stro	-13.8856
▁inexpe	-13.8863
res	-13.8876
▁fus	-13.8882
zes	-13.8883
inc	-13.892
nife	-13.8921
ven	-13.8939
ker	-13.8956
perfect	-13.8974
convenient	-13.8974
vol	-13.8996
▁anni	-13.9004
tany	-13.902
▁mous	-13.9027
nestl	-13.9029
ride	-13.9043
▁corne	-13.9065
elp	-13.9074
clos	-13.909
▁gall	-13.9095
enni	-13.9098
enda	-13.9107
dime	-13.9111
▁timer	-13.9156
▁pill	-13.9185
▁rela	-13.9205
▁unhea	-13.9218
▁mah	-13.9241
ouche	-13.9246
▁ther	-13.9257
▁bea	-13.9258
▁trea	-13.9272
▁rud	-13.928
▁reali	-13.9309
high	-13.9339
▁prev	-13.9341
selection	-13.9359
uli	-13.9392
arch	-13.9413
cure	-13.9413
▁mys	-13.9439
ength	-13.945
▁tha	-13.9465
rane	-13.9468
▁chall	-13.9472
imo	-13.9503
rett	-13.9505
▁dum	-13.9511
mm	-13.9522
aur	-13.9522
bu	-13.953
sad	-13.9549
▁chu	-13.9559
▁loa	-13.9565
much	-13.9583
inten	-13.9597
▁lakes	-13.9601
▁compre	-13.963
caj	-13.9638
yp	-13.9715
▁rou	-13.9723
sher	-13.9726
terribl	-13.9734
pass	-13.9745
joy	-13.9754
▁punc	-13.9759
pose	-13.9761
aloo	-13.9768
gra	-13.9793
▁mars	-13.98
nai	-13.986
▁informa	-13.9885
▁jumpe	-13.9891
ssur	-13.9911
family	-13.9911
▁wolf	-13.9923
turn	-13.9932
uf	-13.9934
dilla	-13.994
versati	-13.9943
▁belo	-13.9943
minute	-13.9961
▁offe	-13.9999
flavor	-14.0003
lnut	-14.0023
ging	-14.0042
lute	-14.0057
essa	-14.0058
lecti	-14.0069
alk	-14.0071
cott	-14.0076
liver	-14.0098
▁rese	-14.01
appeal	-14.011
rse	-14.0113
ndon	-14.0114
rip	-14.0124
▁cou	-14.0146
ute	-14.0164
rick	-14.0205
ppo	-14.0207
▁phoeni	-14.0223
som	-14.0232
▁reno	-14.0234
▁appare	-14.0235
▁brac	-14.0236
emed	-14.0256
first	-14.0261
▁hur	-14.0268
isite	-14.028
▁pra	-14.0301
▁designe	-14.031
ield	-14.0332
event	-14.034
setting	-14.0357
▁sty	-14.0398
say	-14.0437
fecti	-14.0439
unti	-14.0462
tellin	-14.0464
▁slid	-14.0469
ifor	-14.0485
▁lib	-14.0529
drink	-14.0529
owne	-14.0535
▁ala	-14.0535
urp	-14.054
frie	-14.0547
ool	-14.0552
thin	-14.0559
pecta	-14.061
ames	-14.0622
ari	-14.0627
eddi	-14.0651
▁dill	-14.0666
atie	-14.0711
▁swea	-14.0729
uct	-14.0731
rning	-14.0735
pf	-14.0759
rete	-14.0763
fun	-14.0764
cken	-14.0787
elle	-14.0791
radi	-14.08
▁exp	-14.0803
▁wast	-14.0807
rude	-14.0808
▁af	-14.0811
eight	-14.0826
pect	-14.0844
noran	-14.0847
▁coin	-14.0864
pastr	-14.089
tional	-14.0919
mmo	-14.0958
bou	-14.0982
sandwich	-14.1066
everyone	-14.1079
fly	-14.1143
angr	-14.115
▁pierce	-14.1164
▁tort	-14.1165
▁easie	-14.1203
cord	-14.1238
after	-14.128
cian	-14.1295
smissi	-14.1316
▁avi	-14.1318
gnit	-14.1347
ene	-14.1385
rsh	-14.1393
ert	-14.1397
dine	-14.1439
hot	-14.1463
bil	-14.1463
sura	-14.1471
cide	-14.148
▁kris	-14.1483
▁sma	-14.1489
▁cel	-14.1504
friend	-14.1504
rye	-14.1506
▁jea	-14.1509
thank	-14.151
▁gl	-14.157
oker	-14.1607
presentati	-14.161
tone	-14.1611
▁anne	-14.162
▁fet	-14.1624
risp	-14.1641
tige	-14.1664
▁collecti	-14.1701
eppe	-14.1701
roon	-14.1702
rth	-14.1713
past	-14.1727
oin	-14.1737
tel	-14.1751
uebe	-14.1809
▁ple	-14.1811
esto	-14.1815
▁movi	-14.1825
clude	-14.1851
salad	-14.1856
▁exc	-14.1868
▁dal	-14.1885
api	-14.189
quick	-14.1906
imp	-14.1915
chand	-14.1935
prepar	-14.1962
ecepti	-14.1966
▁stac	-14.1973
scal	-14.1976
breakfast	-14.2012
anc	-14.2019
onic	-14.2028
tip	-14.2052
claim	-14.2056
vate	-14.206
lip	-14.2064
▁lon	-14.2068
bianc	-14.2071
owe	-14.2079
band	-14.2086
▁slowe	-14.2095
lassi	-14.2112
rkin	-14.2134
rit	-14.2176
shine	-14.2192
hips	-14.2197
nse	-14.2215
ms	-14.2233
cie	-14.2234
igno	-14.2236
ecti	-14.2255
▁bow	-14.2266
ov	-14.2269
hour	-14.2287
ich	-14.2296
▁stan	-14.2311
▁toy	-14.2324
havi	-14.2343
ntial	-14.2349
arr	-14.2351
nder	-14.2353
▁id	-14.2354
ili	-14.2362
aton	-14.2363
▁lux	-14.2365
fell	-14.2367
rudel	-14.2374
▁thro	-14.2386
wh	-14.2392
▁upse	-14.2418
itche	-14.2424
icop	-14.2429
want	-14.2429
oss	-14.2431
▁pas	-14.2448
▁accomodati	-14.2451
▁grim	-14.2465
▁unp	-14.2465
arts	-14.2478
job	-14.2499
▁cove	-14.2504
▁hus	-14.2508
mall	-14.2509
business	-14.2533
guy	-14.2536
gal	-14.2538
return	-14.2542
who	-14.2544
ague	-14.2559
tay	-14.2573
▁supporti	-14.2575
▁mas	-14.2581
▁num	-14.2612
acken	-14.2613
sil	-14.2623
▁humo	-14.2626
ratu	-14.2628
rout	-14.263
stron	-14.2649
▁cro	-14.2651
▁liste	-14.2664
ibi	-14.2667
▁desc	-14.2696
print	-14.271
spot	-14.2721
uten	-14.274
highl	-14.2747
▁hers	-14.2756
rabbi	-14.2811
thanks	-14.2834
ail	-14.2865
bana	-14.2868
▁frid	-14.2883
anne	-14.2901
ream	-14.2909
vers	-14.291
test	-14.2913
ogi	-14.2917
fe	-14.2923
tzel	-14.2928
loss	-14.2962
ickin	-14.2964
und	-14.297
need	-14.2991
las	-14.2992
▁jal	-14.3003
acha	-14.3023
ckin	-14.3025
flat	-14.3033
▁lunche	-14.3065
neat	-14.3097
▁marke	-14.3108
▁anth	-14.3108
affe	-14.3113
dresse	-14.3116
▁berr	-14.3169
▁seve	-14.3174
extreme	-14.318
▁err	-14.3204
▁gua	-14.3208
signe	-14.3228
strip	-14.3234
igne	-14.3237
lize	-14.3243
adam	-14.3254
vad	-14.3267
▁containe	-14.3291
bet	-14.3296
▁bin	-14.3313
▁som	-14.3325
▁shad	-14.3362
menu	-14.3388
lation	-14.3392
abo	-14.3393
cific	-14.3402
ajo	-14.3416
pri	-14.3416
heat	-14.3436
lley	-14.3493
▁kno	-14.3526
essi	-14.353
cer	-14.3563
icke	-14.3563
audi	-14.3571
bal	-14.3577
▁nap	-14.3578
▁gentl	-14.3579
des	-14.3588
cline	-14.3637
hers	-14.3646
ora	-14.3657
▁ped	-14.3668
▁existe	-14.3681
egg	-14.3729
rship	-14.3795
ific	-14.3797
sing	-14.3832
fel	-14.3834
rene	-14.3835
▁toni	-14.3841
adi	-14.3883
hea	-14.3897
thor	-14.3913
sum	-14.3922
▁seed	-14.3935
▁rag	-14.3946
cous	-14.3979
tent	-14.3987
▁nov	-14.4002
▁reme	-14.4054
ines	-14.4079
▁younge	-14.4098
imal	-14.4116
sauce	-14.4124
server	-14.414
share	-14.4151
stan	-14.4165
him	-14.4186
hil	-14.4198
oli	-14.4203
gua	-14.4219
kee	-14.4267
oda	-14.4267
bey	-14.4278
din	-14.4301
nica	-14.4352
oint	-14.4369
itt	-14.4376
handl	-14.4384
ieve	-14.4387
ups	-14.4405
hame	-14.4414
ombo	-14.445
ko	-14.4451
pub	-14.4457
acks	-14.4488
ides	-14.4528
itter	-14.4531
▁sew	-14.4553
▁bond	-14.4559
feel	-14.457
both	-14.4589
▁att	-14.4591
▁sui	-14.4601
atta	-14.4677
wic	-14.4692
nsi	-14.4707
▁brea	-14.4714
sport	-14.4728
▁gab	-14.474
rawn	-14.4744
kes	-14.4747
▁wea	-14.4748
▁fou	-14.4772
bble	-14.4806
easter	-14.4815
▁insi	-14.4833
does	-14.4833
▁od	-14.4855
▁oc	-14.4912
chila	-14.4934
utch	-14.4945
shim	-14.5011
noa	-14.5015
deli	-14.5028
▁spici	-14.5028
▁iv	-14.5031
▁preci	-14.5071
lore	-14.5083
dach	-14.509
pane	-14.5091
lug	-14.5124
anita	-14.5169
tea	-14.5173
mill	-14.5177
iori	-14.5182
▁sau	-14.5194
▁stare	-14.5203
▁edg	-14.5216
▁capa	-14.5238
▁manic	-14.524
roke	-14.5249
atel	-14.5268
earl	-14.5298
alua	-14.5304
vel	-14.5328
▁nove	-14.5354
ister	-14.5368
▁excel	-14.5381
tes	-14.5393
nfus	-14.5402
upi	-14.5419
dit	-14.5427
polo	-14.5448
rou	-14.5455
tton	-14.5465
▁olde	-14.5467
▁pitch	-14.5476
chel	-14.5479
stay	-14.553
gest	-14.5537
light	-14.5608
dom	-14.5618
▁pac	-14.5645
ardo	-14.5667
▁ame	-14.5687
tyle	-14.5703
▁exper	-14.5708
askin	-14.572
nj	-14.5728
ador	-14.573
▁alr	-14.5756
part	-14.5814
▁seal	-14.5814
should	-14.5818
cili	-14.5864
otta	-14.5894
clud	-14.593
rving	-14.5944
chni	-14.5961
bee	-14.598
vor	-14.5989
impress	-14.5993
aka	-14.6001
ses	-14.6002
▁nel	-14.6006
find	-14.6008
ggin	-14.6014
▁pole	-14.6031
portion	-14.6053
dd	-14.6076
oh	-14.6096
hell	-14.6133
tar	-14.6165
hit	-14.6186
hear	-14.6235
area	-14.625
atz	-14.6261
seem	-14.627
oache	-14.6308
hella	-14.6315
iche	-14.6416
nois	-14.6431
▁pil	-14.6434
itch	-14.6439
boo	-14.6454
nds	-14.6456
nta	-14.6463
mer	-14.6474
stor	-14.6475
▁gee	-14.6483
nite	-14.6515
employee	-14.6519
▁highe	-14.655
coffee	-14.6572
leston	-14.6599
orta	-14.6602
ase	-14.6603
icate	-14.662
cip	-14.6658
zzar	-14.6672
rr	-14.6682
tones	-14.6684
▁bec	-14.6703
companie	-14.6719
kind	-14.6759
ugge	-14.6761
dk	-14.6822
▁unc	-14.6822
▁hen	-14.6824
alth	-14.6849
small	-14.6865
ionist	-14.6887
beautiful	-14.6897
▁nin	-14.6916
▁overd	-14.6918
▁elli	-14.6924
ull	-14.695
▁ky	-14.6952
nical	-14.6959
nyon	-14.6963
ether	-14.697
alle	-14.6998
pud	-14.7005
far	-14.7014
▁gus	-14.7053
▁speciali	-14.7054
awe	-14.7061
rts	-14.707
found	-14.7087
▁ren	-14.7089
▁stun	-14.7111
lump	-14.717
outdoor	-14.7181
tack	-14.7209
pill	-14.7222
nction	-14.7253
▁rega	-14.7268
fter	-14.7273
big	-14.7282
ux	-14.7312
▁yours	-14.7337
help	-14.7371
aten	-14.7376
▁ji	-14.7381
▁ir	-14.7411
▁lic	-14.7427
oma	-14.7444
▁overh	-14.7455
ando	-14.7469
▁haz	-14.7495
rave	-14.7509
nne	-14.7518
▁ou	-14.7524
occo	-14.7548
▁scor	-14.7565
before	-14.7579
review	-14.7581
steak	-14.7599
poor	-14.7602
▁gru	-14.7636
llen	-14.7664
cil	-14.7676
▁chea	-14.7702
▁cia	-14.7757
▁roc	-14.7758
▁ry	-14.7786
left	-14.7795
▁mal	-14.7798
waitress	-14.7807
vet	-14.7809
ands	-14.7809
▁boa	-14.7834
▁mos	-14.7841
inch	-14.7849
dis	-14.7858
atient	-14.7861
▁inj	-14.7876
mexic	-14.7894
▁dy	-14.7907
gem	-14.7908
▁ali	-14.7932
▁vs	-14.7933
rowd	-14.7939
inda	-14.7943
eet	-14.7962
sweet	-14.7964
decent	-14.809
quee	-14.8133
▁cari	-14.8144
▁orienta	-14.8148
vour	-14.8163
claime	-14.8168
ilt	-14.8189
eca	-14.828
au	-14.8284
▁pala	-14.8292
ett	-14.8294
authentic	-14.8301
▁hon	-14.8338
rocc	-14.8358
▁scu	-14.8361
sham	-14.8385
tell	-14.8417
hole	-14.8432
tag	-14.8437
lac	-14.844
▁mann	-14.8452
ooke	-14.8456
ealth	-14.8493
ppointment	-14.8505
trip	-14.8508
fer	-14.851
yes	-14.8535
mont	-14.8581
tru	-14.8603
▁hef	-14.8606
nee	-14.8613
soup	-14.8617
▁hairs	-14.8661
▁gla	-14.8692
sket	-14.8745
ati	-14.8749
raci	-14.8752
cool	-14.8773
▁slee	-14.8779
ste	-14.8781
specti	-14.8787
edge	-14.8815
▁profi	-14.8819
tandard	-14.8866
office	-14.8883
incredibl	-14.8903
▁boul	-14.8906
rever	-14.9006
total	-14.9051
▁jum	-14.906
fin	-14.9104
liss	-14.9126
local	-14.915
sser	-14.9179
manager	-14.9198
▁tor	-14.9237
▁asa	-14.9239
▁gui	-14.9258
▁les	-14.9301
mpto	-14.9303
capp	-14.9312
ango	-14.9402
cker	-14.9414
meat	-14.9422
xim	-14.9455
pay	-14.9456
ende	-14.9469
▁barr	-14.949
tenan	-14.9493
▁sli	-14.9494
taco	-14.95
urs	-14.9506
sea	-14.9524
tti	-14.953
▁coo	-14.9541
▁acu	-14.9564
owner	-14.958
nimal	-14.9605
oach	-14.9611
knowledge	-14.9625
uti	-14.9667
aver	-14.9667
▁polishe	-14.9683
smo	-14.971
proac	-14.9725
▁ni	-14.9742
slow	-14.9744
phoenix	-14.9759
bili	-14.9824
hire	-14.983
gai	-14.9852
▁pref	-14.9873
resso	-14.9884
roache	-14.9912
estin	-14.9919
rri	-14.9941
door	-14.9957
cepti	-14.9962
complete	-14.9965
yb	-14.9987
▁inf	-15.0089
▁una	-15.0095
vera	-15.0114
▁cos	-15.0119
▁edi	-15.0143
ssa	-15.0159
activ	-15.0187
vega	-15.0209
rows	-15.0213
hotel	-15.022
enta	-15.0223
heap	-15.0264
hug	-15.0273
asses	-15.0293
tender	-15.0359
▁understa	-15.0368
aming	-15.0373
assur	-15.0374
fy	-15.0417
bea	-15.0437
▁occ	-15.044
arty	-15.0469
▁lan	-15.0471
nea	-15.0479
▁meg	-15.0483
▁ave	-15.0525
▁tro	-15.0528
▁cass	-15.0539
ueb	-15.0562
simpl	-15.0585
kel	-15.06
mpath	-15.0605
ddie	-15.0611
mati	-15.0632
roast	-15.064
omi	-15.0644
▁graci	-15.0648
rivi	-15.0652
▁sev	-15.0672
▁compari	-15.0719
pani	-15.0724
▁hotte	-15.0729
llin	-15.0771
deliver	-15.0802
etch	-15.0808
nis	-15.0848
kati	-15.0869
chin	-15.0903
lack	-15.0943
zing	-15.0959
xing	-15.0969
spa	-15.0998
edd	-15.1054
kid	-15.1061
anch	-15.1074
uan	-15.1078
ipe	-15.1086
itive	-15.1143
nan	-15.1157
▁forth	-15.1169
▁ind	-15.1171
arsh	-15.1268
prob	-15.127
eh	-15.1313
stai	-15.1321
tune	-15.1327
rent	-15.1358
pla	-15.1361
sm	-15.14
cheap	-15.1403
mme	-15.1438
ires	-15.1439
▁genera	-15.1447
week	-15.1497
option	-15.1498
rac	-15.1527
pare	-15.1529
waste	-15.1547
emp	-15.1585
pas	-15.1664
medi	-15.1688
rote	-15.1692
por	-15.1716
▁ale	-15.1735
▁compa	-15.1738
erne	-15.1746
ersonal	-15.1766
llar	-15.1768
asp	-15.1794
tua	-15.1798
salsa	-15.1808
acti	-15.1838
tick	-15.1865
nail	-15.1874
arit	-15.1884
rho	-15.1886
thwest	-15.189
estro	-15.1906
▁bent	-15.1939
replace	-15.1946
ctual	-15.1948
ightful	-15.1953
scra	-15.1996
tead	-15.1998
ots	-15.2023
nais	-15.2026
especial	-15.2029
sai	-15.2038
ouse	-15.2045
reason	-15.205
rush	-15.2095
problem	-15.2101
iscon	-15.217
serv	-15.2306
hav	-15.2315
serie	-15.232
▁succ	-15.2352
rob	-15.2378
▁cond	-15.2384
stake	-15.2415
noth	-15.2421
pat	-15.243
loo	-15.2433
▁esc	-15.2447
rds	-15.2456
imming	-15.248
▁appl	-15.2497
oph	-15.2512
actual	-15.2537
scou	-15.2543
▁ed	-15.257
cit	-15.2575
chip	-15.2583
▁lau	-15.2592
skin	-15.2604
tifi	-15.262
ote	-15.2621
▁fres	-15.2662
may	-15.2666
sor	-15.2677
▁ele	-15.2744
mmmmm	-15.2748
nor	-15.2764
ske	-15.2783
▁kicke	-15.2819
whole	-15.2857
seat	-15.2859
wow	-15.2867
usual	-15.293
nting	-15.2943
torn	-15.2953
hopp	-15.2959
▁tod	-15.2959
actor	-15.2962
cus	-15.2978
choice	-15.3008
bing	-15.3019
uk	-15.3021
hair	-15.3061
icat	-15.3063
▁hik	-15.309
forget	-15.3106
ncess	-15.3123
ranc	-15.313
lent	-15.3154
lesl	-15.3212
▁conn	-15.3221
experienc	-15.3266
tt	-15.3269
offer	-15.3273
▁fore	-15.3348
▁wishe	-15.3364
iss	-15.3386
▁gues	-15.3393
▁lif	-15.3393
bett	-15.3396
▁perc	-15.3396
lett	-15.3449
disgust	-15.3457
husband	-15.3469
spic	-15.3471
ceiv	-15.3491
▁resta	-15.3493
sist	-15.352
shrimp	-15.3529
rule	-15.356
hnic	-15.3564
▁maca	-15.3577
▁sep	-15.3605
tine	-15.3614
stuff	-15.364
nada	-15.3685
pet	-15.3706
xi	-15.373
ellin	-15.3749
avoid	-15.3762
aner	-15.3763
ethi	-15.3781
fortunate	-15.3802
▁enco	-15.3857
dr	-15.3889
▁stea	-15.3899
wine	-15.3901
ensation	-15.3948
▁northe	-15.3951
large	-15.3953
▁dia	-15.3964
ulin	-15.3974
rm	-15.3974
uffe	-15.3978
inful	-15.3986
unfortunate	-15.4015
nita	-15.4033
orse	-15.4037
sent	-15.4073
dry	-15.41
▁opti	-15.4135
▁artif	-15.4136
▁pis	-15.4183
▁conce	-15.4237
hem	-15.4283
ows	-15.4302
change	-15.4336
isa	-15.4385
sti	-15.4388
usse	-15.4391
ista	-15.4396
▁av	-15.445
serve	-15.4452
lown	-15.4472
ntain	-15.4492
lan	-15.4495
rabb	-15.4497
gel	-15.4499
▁alm	-15.4542
lp	-15.4563
icker	-15.457
porta	-15.4571
alma	-15.4573
lard	-15.4592
ridiculous	-15.4644
must	-15.4653
hann	-15.4655
wor	-15.4663
allow	-15.4715
drive	-15.4741
▁impo	-15.4743
salon	-15.4744
dama	-15.4748
aske	-15.4759
eli	-15.4767
tyl	-15.4817
bbl	-15.4826
gett	-15.4832
charl	-15.4874
aa	-15.4909
rofessional	-15.492
▁inst	-15.4935
ofessional	-15.4983
eme	-15.4986
serious	-15.5004
visi	-15.5018
rlo	-15.5041
▁sup	-15.5073
item	-15.5075
cen	-15.5086
dog	-15.5146
tai	-15.5147
gross	-15.516
▁sk	-15.5163
▁colori	-15.5163
haha	-15.5218
posed	-15.5234
▁deca	-15.5242
ndid	-15.5242
amp	-15.5248
rad	-15.5252
arry	-15.5271
noon	-15.5277
pen	-15.5317
rach	-15.5322
emi	-15.5357
dirt	-15.5361
lat	-15.537
waiter	-15.5393
heir	-15.54
tables	-15.5434
▁rem	-15.5473
caus	-15.5487
▁dee	-15.5507
start	-15.5512
▁cham	-15.5534
ricot	-15.5553
dic	-15.5602
llet	-15.561
ertise	-15.5611
trie	-15.5636
neighborhood	-15.5678
yro	-15.5685
mile	-15.57
ght	-15.5712
regular	-15.5714
ates	-15.5744
ngr	-15.575
oga	-15.5763
andon	-15.5767
▁cardi	-15.5771
▁wt	-15.5778
esqui	-15.58
tness	-15.5825
hilad	-15.5847
▁devi	-15.586
bartender	-15.5881
▁exi	-15.5889
lar	-15.5891
▁tig	-15.5928
▁rai	-15.5938
▁exa	-15.5966
scor	-15.598
pick	-15.5989
leave	-15.599
eo	-15.6012
burrito	-15.6035
bring	-15.6052
win	-15.6054
lice	-15.6072
jan	-15.6072
thai	-15.6073
since	-15.6098
lov	-15.613
evi	-15.6144
mage	-15.6188
esa	-15.6193
manage	-15.6194
ristin	-15.6221
exi	-15.6222
▁esta	-15.6333
licate	-15.634
stle	-15.6349
emo	-15.6367
ois	-15.637
eque	-15.6383
▁expe	-15.6387
smell	-15.6397
charge	-15.6439
▁hab	-15.6489
igni	-15.6491
▁stee	-15.6517
pittsburg	-15.6596
ucke	-15.6599
rest	-15.661
urger	-15.6682
second	-15.6696
struction	-15.6703
duc	-15.6705
▁bia	-15.6723
plus	-15.6732
opi	-15.6733
efore	-15.6739
spani	-15.6827
wife	-15.6827
▁satisf	-15.6847
valle	-15.6892
▁sunda	-15.6939
amin	-15.6948
show	-15.696
value	-15.697
alco	-15.701
▁accordi	-15.7021
gano	-15.7027
▁capr	-15.7037
month	-15.7091
cost	-15.7127
suck	-15.713
pel	-15.7157
doctor	-15.7191
▁oppo	-15.7197
consider	-15.7199
▁cente	-15.7204
▁smalle	-15.7223
aghe	-15.7249
rust	-15.7308
ct	-15.7309
▁pani	-15.7309
iso	-15.7314
lub	-15.7358
omme	-15.7361
wif	-15.7392
talk	-15.7396
▁invo	-15.7421
lle	-15.7422
add	-15.7433
aste	-15.7444
blis	-15.7475
final	-15.7509
fan	-15.752
ax	-15.7532
enn	-15.7534
rand	-15.7538
eit	-15.754
tir	-15.7563
prou	-15.7589
surprise	-15.7614
ution	-15.7625
hatt	-15.7637
melt	-15.7651
welcome	-15.7664
teres	-15.7712
otel	-15.7726
thr	-15.7741
appetizer	-15.7764
nti	-15.7797
▁seri	-15.7818
entire	-15.7819
ena	-15.7819
stop	-15.7843
spit	-15.7846
▁disco	-15.7861
hairs	-15.7862
ete	-15.7913
erg	-15.7946
hills	-15.7958
receive	-15.802
music	-15.8031
bord	-15.8032
media	-15.8112
cas	-15.8127
variet	-15.8127
eric	-15.8148
hate	-15.8149
lif	-15.8168
green	-15.8181
▁er	-15.8189
▁meth	-15.8208
▁ext	-15.821
loom	-15.8213
dam	-15.8231
▁pal	-15.8236
iev	-15.8253
▁mc	-15.8269
airport	-15.829
harb	-15.8355
octo	-15.837
orth	-15.8385
ui	-15.8438
mend	-15.8473
▁inc	-15.8485
tl	-15.8519
range	-15.8567
▁conf	-15.8598
pita	-15.8599
ewer	-15.86
ino	-15.8627
yumm	-15.8632
kage	-15.8663
duce	-15.8687
nde	-15.8701
oyot	-15.8714
thought	-15.8718
cop	-15.8757
cr	-15.8786
card	-15.8825
buy	-15.8883
▁bes	-15.8913
▁pati	-15.8921
nni	-15.8926
dea	-15.8965
almo	-15.8967
team	-15.9019
dessert	-15.91
rue	-15.9111
harle	-15.9135
hands	-15.9191
▁tac	-15.9215
afford	-15.9275
xed	-15.9301
pasta	-15.934
ccur	-15.9406
fus	-15.9421
lla	-15.9444
▁bask	-15.9541
rson	-15.9665
fine	-15.9683
ests	-15.9684
ner	-15.9705
tise	-15.9717
extra	-15.9718
har	-15.9745
obble	-15.9746
decor	-15.9753
unique	-15.9775
tre	-15.9841
sse	-15.986
relax	-15.9867
rato	-15.9873
counter	-15.9879
lyn	-15.9886
screen	-15.9899
rating	-15.9976
▁ut	-15.9979
bill	-15.9983
▁unh	-16.0005
fuse	-16.0078
opene	-16.0091
rill	-16.0103
▁unbe	-16.014
plate	-16.0141
shl	-16.0168
cow	-16.0224
▁spri	-16.0232
osed	-16.0297
crisp	-16.0356
▁soc	-16.04
iga	-16.0449
tore	-16.0458
half	-16.0467
pers	-16.0566
nello	-16.0568
tc	-16.059
str	-16.06
cute	-16.0609
destr	-16.0703
wel	-16.0707
eld	-16.0719
hippi	-16.072
lop	-16.0726
exceptional	-16.0773
asse	-16.0779
attitude	-16.0806
guess	-16.0857
opper	-16.0875
▁atti	-16.0883
ort	-16.0928
group	-16.093
eed	-16.0961
cole	-16.099
hum	-16.0992
ordina	-16.0999
llion	-16.1006
expect	-16.1065
arb	-16.1075
nua	-16.1079
soon	-16.1092
▁ult	-16.1106
▁favo	-16.114
vent	-16.1175
mis	-16.1184
welcom	-16.1185
▁hoo	-16.1228
bles	-16.1248
illing	-16.1283
lam	-16.1292
mistake	-16.1298
allen	-16.1305
girl	-16.1359
spen	-16.136
ingredient	-16.1376
▁quin	-16.1419
hel	-16.1456
esident	-16.1459
emon	-16.1523
ices	-16.1538
move	-16.1555
bagel	-16.1564
▁inv	-16.1581
sub	-16.1584
rass	-16.1678
ech	-16.1685
▁wee	-16.1708
mper	-16.1719
uil	-16.1737
ompany	-16.1775
believe	-16.1786
bla	-16.1789
salt	-16.1808
err	-16.1817
recent	-16.1824
luv	-16.1829
buffet	-16.1839
arin	-16.185
passe	-16.1878
dication	-16.1883
▁jul	-16.1911
hou	-16.1916
plent	-16.1982
▁beth	-16.2009
product	-16.2029
▁considera	-16.2048
finish	-16.2098
happen	-16.2106
lway	-16.2145
▁discl	-16.2146
reasonably	-16.2146
remember	-16.2149
noodle	-16.2232
courte	-16.2293
count	-16.2342
yelp	-16.2426
oas	-16.2428
iva	-16.2446
rams	-16.245
curr	-16.2459
ees	-16.2462
rl	-16.248
▁prima	-16.2485
bathroom	-16.2534
grac	-16.2539
▁styli	-16.2542
ambi	-16.2547
prompt	-16.2552
hook	-16.2574
list	-16.2584
elv	-16.2653
class	-16.271
short	-16.2716
alter	-16.272
understand	-16.2748
sat	-16.2749
veggie	-16.28
ik	-16.2823
continue	-16.2844
tart	-16.2856
▁sala	-16.3068
▁towe	-16.3072
nero	-16.3078
kend	-16.3088
near	-16.3096
exist	-16.3182
ulg	-16.3201
llag	-16.322
rock	-16.3224
stopp	-16.3236
rted	-16.3296
rran	-16.3365
accommodat	-16.3372
▁arr	-16.3425
fill	-16.348
couple	-16.3495
jer	-16.3523
novat	-16.3556
sman	-16.3558
smile	-16.3571
play	-16.3614
overs	-16.3618
potato	-16.3657
ssi	-16.3686
▁ms	-16.3687
astes	-16.3713
rren	-16.3737
asa	-16.374
yer	-16.3761
▁fis	-16.3779
actu	-16.3852
alize	-16.3859
cra	-16.3883
morning	-16.3896
gar	-16.391
hib	-16.394
enviro	-16.3944
▁ado	-16.3944
▁blu	-16.3977
oot	-16.399
lott	-16.4001
▁conditione	-16.4004
mess	-16.4009
▁plu	-16.4037
pots	-16.4099
▁roa	-16.4111
eter	-16.4113
member	-16.4152
establishment	-16.424
lob	-16.4243
▁mot	-16.4326
margarita	-16.4329
rtise	-16.4347
siz	-16.4361
trust	-16.4381
pai	-16.4457
reas	-16.448
ppie	-16.4512
ubli	-16.4518
ham	-16.4518
serving	-16.4536
plan	-16.4568
▁indu	-16.4588
squi	-16.4675
appreciate	-16.4717
clear	-16.4787
scu	-16.4788
hl	-16.4789
negative	-16.4874
arsal	-16.4906
ober	-16.4937
▁nat	-16.4957
ause	-16.4969
polite	-16.4972
▁eli	-16.5067
stil	-16.5123
yi	-16.5155
weekend	-16.5155
▁effi	-16.5161
clu	-16.5163
▁imme	-16.5165
nize	-16.5188
nv	-16.5195
taff	-16.5195
isu	-16.5263
bin	-16.5268
eater	-16.5276
needles	-16.5282
greas	-16.5286
▁spott	-16.5326
alf	-16.5355
sunday	-16.5359
eir	-16.5371
pina	-16.5406
anger	-16.5445
mpress	-16.5471
entree	-16.5481
tall	-16.5484
enti	-16.5548
pancake	-16.557
ords	-16.5587
hospital	-16.5649
ccept	-16.5689
seph	-16.5691
spend	-16.5704
▁clea	-16.5706
po	-16.5718
ritt	-16.575
▁fie	-16.5751
▁fea	-16.5757
question	-16.5786
iron	-16.5854
thorough	-16.5887
▁sco	-16.5907
▁mm	-16.5914
mention	-16.594
oat	-16.5945
▁mg	-16.596
dollar	-16.5992
ait	-16.5995
garlic	-16.6019
arted	-16.6021
bag	-16.6029
fab	-16.6049
▁travele	-16.6057
facilit	-16.6122
onto	-16.6125
amount	-16.6134
answer	-16.6134
rrie	-16.6148
aig	-16.6176
tere	-16.6176
ntion	-16.6192
eg	-16.6216
rsty	-16.6222
▁cous	-16.6279
▁infe	-16.6322
game	-16.6328
▁tastie	-16.6365
patio	-16.6406
forme	-16.6407
▁cer	-16.648
▁sher	-16.6497
▁flou	-16.6543
gress	-16.657
saturday	-16.6574
fac	-16.659
tr	-16.659
purchase	-16.6597
pedicure	-16.6612
▁mou	-16.6613
joint	-16.6619
derate	-16.6654
onion	-16.6691
archi	-16.6737
mazing	-16.6754
fix	-16.6771
bio	-16.6801
odd	-16.6848
rack	-16.6888
ito	-16.691
true	-16.692
nald	-16.6936
ffice	-16.6961
bite	-16.6966
mac	-16.704
anyway	-16.7049
party	-16.7054
▁distr	-16.7064
fes	-16.7066
glad	-16.7106
mind	-16.712
▁inconsi	-16.7126
repair	-16.7129
sol	-16.7132
nach	-16.7192
▁sar	-16.7251
bother	-16.7293
arrive	-16.7297
pool	-16.7315
color	-16.7414
roe	-16.7423
generous	-16.7519
vibe	-16.7542
kill	-16.7558
orker	-16.7566
bowl	-16.7611
shopp	-16.7615
friday	-16.7626
▁atr	-16.7628
wder	-16.7658
temp	-16.766
akla	-16.7696
wedding	-16.771
tomo	-16.7717
ols	-16.7723
ann	-16.7781
▁tot	-16.7785
hoppe	-16.7786
sales	-16.7801
▁acti	-16.7836
street	-16.7954
cti	-16.8047
oi	-16.8066
mmmm	-16.8067
grill	-16.8082
▁brus	-16.8084
▁reas	-16.8102
gre	-16.8161
obvious	-16.8202
evening	-16.8225
sd	-16.8225
cce	-16.8229
uns	-16.8245
tu	-16.8278
gge	-16.8304
lane	-16.8304
dere	-16.8336
save	-16.839
rix	-16.8474
cab	-16.8492
hle	-16.8495
donut	-16.85
cision	-16.8542
urn	-16.8573
▁une	-16.8667
pin	-16.8691
pair	-16.8705
▁roo	-16.8705
roduce	-16.8764
fortun	-16.8777
certain	-16.8839
ender	-16.8929
pli	-16.8941
hur	-16.8956
overa	-16.8985
▁disc	-16.8991
ril	-16.8997
▁dre	-16.9044
sational	-16.9054
walke	-16.9095
potatoe	-16.9144
▁homes	-16.9156
greet	-16.918
pepper	-16.9204
enchilada	-16.9271
▁imagina	-16.9431
pu	-16.9432
basic	-16.9509
yoursel	-16.952
▁refu	-16.954
correct	-16.9567
cl	-16.9604
deserve	-16.9625
peak	-16.9641
locate	-16.9645
haircut	-16.9657
dive	-16.9808
sca	-16.9809
boyfriend	-16.9829
particular	-16.986
wners	-16.9866
eon	-16.9917
fili	-16.992
sen	-16.9925
refill	-16.9952
entur	-16.9978
▁gy	-17.0037
orr	-17.0084
anu	-17.0092
thle	-17.0128
knowledg	-17.0139
ggest	-17.0176
rapi	-17.0192
cover	-17.021
erc	-17.0213
slice	-17.0219
quiet	-17.0233
identi	-17.0245
birthday	-17.0269
lco	-17.0354
rta	-17.0495
hung	-17.0512
idea	-17.0524
dentist	-17.0527
inte	-17.053
ndoor	-17.0537
onu	-17.0568
tomato	-17.0592
cam	-17.0617
rgen	-17.0634
provide	-17.067
respect	-17.0688
informati	-17.0714
▁ent	-17.0731
detail	-17.0745
vegetable	-17.0798
feeling	-17.0856
olca	-17.0864
general	-17.0865
ock	-17.0893
sort	-17.0975
animal	-17.0978
uth	-17.1002
chili	-17.1128
world	-17.1131
bare	-17.1137
isor	-17.1182
tila	-17.1221
▁overlo	-17.1264
▁downs	-17.1304
reservation	-17.1394
pond	-17.1434
positive	-17.1486
dressing	-17.1498
uri	-17.1503
present	-17.1522
driver	-17.1554
main	-17.1591
classic	-17.1652
none	-17.1678
terrifi	-17.1692
writ	-17.1743
gyro	-17.1753
attenti	-17.1778
udi	-17.1803
cashier	-17.1804
nge	-17.1872
eva	-17.1881
chef	-17.1916
rival	-17.192
massage	-17.192
lend	-17.1921
▁hem	-17.1928
explain	-17.1943
tray	-17.1958
thes	-17.1988
pace	-17.2044
easa	-17.2058
xture	-17.2102
ald	-17.2159
▁jor	-17.2206
ire	-17.2225
hope	-17.2255
dro	-17.2276
toast	-17.2279
sha	-17.2312
chocolate	-17.2319
▁moc	-17.2389
heater	-17.239
▁transf	-17.2397
brun	-17.2429
kitchen	-17.2456
▁cd	-17.2496
vegetarian	-17.251
rced	-17.2547
sausage	-17.2582
kyl	-17.2585
annoy	-17.2596
floor	-17.2606
child	-17.2635
ngo	-17.2652
south	-17.2663
dai	-17.2706
fit	-17.276
luck	-17.2772
nging	-17.2791
residen	-17.2804
trac	-17.2839
▁waterf	-17.2893
▁prin	-17.2902
▁counte	-17.2982
oom	-17.2984
tenti	-17.3011
everyt	-17.3137
tens	-17.3139
desert	-17.3154
tella	-17.3183
vir	-17.3259
roof	-17.3274
tentio	-17.3289
sour	-17.331
eeze	-17.3329
butter	-17.333
tortilla	-17.3339
ional	-17.3348
immediate	-17.3352
lsa	-17.3362
tres	-17.3369
tasting	-17.3385
gift	-17.3442
chard	-17.3477
ngth	-17.3536
▁wes	-17.3541
lici	-17.3584
request	-17.3604
dri	-17.3626
mov	-17.3662
spring	-17.3777
▁comed	-17.3803
mig	-17.3935
mans	-17.3972
diner	-17.4
apparent	-17.4014
white	-17.4019
exact	-17.4078
eads	-17.4084
four	-17.4115
opinion	-17.414
ttuc	-17.414
yea	-17.4156
ayl	-17.4172
rico	-17.4215
